const unsigned char trained_tflite[] = {
  0x18, 0x00, 0x00, 0x00, 0x54, 0x46, 0x4c, 0x33, 0x00, 0x00, 0x0e, 0x00,
  0x18, 0x00, 0x04, 0x00, 0x08, 0x00, 0x0c, 0x00, 0x10, 0x00, 0x14, 0x00,
  0x0e, 0x00, 0x00, 0x00, 0x03, 0x00, 0x00, 0x00, 0x14, 0x48, 0x00, 0x00,
  0x0c, 0x00, 0x00, 0x00, 0x10, 0x00, 0x00, 0x00, 0x20, 0x00, 0x00, 0x00,
  0x01, 0x00, 0x00, 0x00, 0xb0, 0x39, 0x00, 0x00, 0x0f, 0x00, 0x00, 0x00,
  0x54, 0x4f, 0x43, 0x4f, 0x20, 0x43, 0x6f, 0x6e, 0x76, 0x65, 0x72, 0x74,
  0x65, 0x64, 0x2e, 0x00, 0x20, 0x00, 0x00, 0x00, 0x84, 0x39, 0x00, 0x00,
  0x68, 0x39, 0x00, 0x00, 0x48, 0x39, 0x00, 0x00, 0x2c, 0x39, 0x00, 0x00,
  0xac, 0x21, 0x00, 0x00, 0x8c, 0x21, 0x00, 0x00, 0x04, 0x21, 0x00, 0x00,
  0xe4, 0x20, 0x00, 0x00, 0xdc, 0x20, 0x00, 0x00, 0xbc, 0x20, 0x00, 0x00,
  0xb4, 0x20, 0x00, 0x00, 0xac, 0x20, 0x00, 0x00, 0xa4, 0x20, 0x00, 0x00,
  0x6c, 0x20, 0x00, 0x00, 0x64, 0x20, 0x00, 0x00, 0x5c, 0x20, 0x00, 0x00,
  0x40, 0x20, 0x00, 0x00, 0xb8, 0x1f, 0x00, 0x00, 0xb0, 0x1f, 0x00, 0x00,
  0xa8, 0x1f, 0x00, 0x00, 0xa0, 0x1f, 0x00, 0x00, 0x98, 0x1f, 0x00, 0x00,
  0x90, 0x1f, 0x00, 0x00, 0x74, 0x1f, 0x00, 0x00, 0xec, 0x00, 0x00, 0x00,
  0xe4, 0x00, 0x00, 0x00, 0xdc, 0x00, 0x00, 0x00, 0x54, 0x00, 0x00, 0x00,
  0x4c, 0x00, 0x00, 0x00, 0x44, 0x00, 0x00, 0x00, 0x0c, 0x00, 0x00, 0x00,
  0x04, 0x00, 0x00, 0x00, 0x2c, 0xb8, 0xff, 0xff, 0xc2, 0xb8, 0xff, 0xff,
  0x04, 0x00, 0x00, 0x00, 0x28, 0x00, 0x00, 0x00, 0x1c, 0x13, 0xd7, 0x3c,
  0xe4, 0x46, 0x1c, 0x3d, 0x33, 0xe5, 0xa3, 0xbb, 0x25, 0xcb, 0x12, 0x3d,
  0xea, 0x21, 0x8b, 0xbb, 0xe6, 0x8d, 0xdf, 0xbb, 0x25, 0x41, 0x1f, 0xbd,
  0x49, 0x86, 0x02, 0x3d, 0xd7, 0x04, 0xab, 0x3c, 0x4c, 0x64, 0x8c, 0xbc,
  0x64, 0xb8, 0xff, 0xff, 0x68, 0xb8, 0xff, 0xff, 0xfe, 0xb8, 0xff, 0xff,
  0x04, 0x00, 0x00, 0x00, 0x78, 0x00, 0x00, 0x00, 0xd7, 0xb8, 0xe4, 0x3d,
  0x20, 0x19, 0x1e, 0x3f, 0x2f, 0x39, 0x38, 0xbf, 0x58, 0xc4, 0x6c, 0x3f,
  0xd1, 0x82, 0x52, 0xbd, 0xd5, 0x4e, 0x1f, 0xbf, 0x21, 0x14, 0xb8, 0xbe,
  0xc4, 0x88, 0x92, 0x3e, 0x1e, 0xec, 0x04, 0x3f, 0x91, 0x99, 0x38, 0xbf,
  0xf9, 0x26, 0x35, 0xbf, 0xab, 0x22, 0x4a, 0xbf, 0xf3, 0x8d, 0x31, 0xbf,
  0x7f, 0xd5, 0x0e, 0xbf, 0xd5, 0xaa, 0x19, 0x3f, 0x6a, 0xa0, 0x23, 0xbf,
  0x2e, 0x3a, 0x26, 0x3f, 0x7a, 0x02, 0x46, 0xbf, 0x24, 0xeb, 0x3a, 0xbf,
  0x45, 0xc4, 0x6b, 0x3c, 0x24, 0x93, 0x04, 0xbb, 0x34, 0xfb, 0xd7, 0xbe,
  0x7b, 0x8d, 0xe6, 0x3e, 0x58, 0x8d, 0xb6, 0xbc, 0x54, 0xcf, 0x93, 0xbd,
  0x99, 0x7f, 0xe0, 0x3e, 0x7a, 0x49, 0xf3, 0xbd, 0x69, 0x24, 0xf1, 0xbe,
  0xb5, 0x95, 0x20, 0x3f, 0x83, 0xd4, 0x2f, 0x3e, 0xf0, 0xb8, 0xff, 0xff,
  0xf4, 0xb8, 0xff, 0xff, 0x8a, 0xb9, 0xff, 0xff, 0x04, 0x00, 0x00, 0x00,
  0x78, 0x1e, 0x00, 0x00, 0x3d, 0xca, 0xbe, 0xbc, 0x89, 0xc5, 0xf5, 0xba,
  0xc9, 0xd6, 0x5e, 0x3e, 0xca, 0x5b, 0x82, 0x3e, 0x29, 0x83, 0x2f, 0x3e,
  0x0e, 0xd0, 0x08, 0x3e, 0x9d, 0x7a, 0x45, 0xbe, 0x84, 0x06, 0x23, 0xbe,
  0x9b, 0x11, 0x37, 0xbe, 0x30, 0xdd, 0x01, 0x3d, 0x04, 0xa8, 0x36, 0xbe,
  0x81, 0xb6, 0x81, 0xbb, 0x38, 0xee, 0x00, 0x3e, 0x18, 0xdc, 0xaa, 0x3d,
  0x9c, 0x0e, 0x45, 0xbd, 0x55, 0x5d, 0x2f, 0x3d, 0xa0, 0x72, 0xcd, 0x3c,
  0xc9, 0x88, 0x10, 0xbe, 0x35, 0x89, 0xc1, 0xbd, 0xe1, 0x28, 0x10, 0xbe,
  0xba, 0x18, 0x62, 0x3e, 0x91, 0x31, 0x5f, 0x3c, 0x9a, 0x84, 0x34, 0xbd,
  0xff, 0x61, 0xcb, 0xbd, 0x4b, 0xe8, 0xe8, 0xbc, 0xdc, 0xe5, 0xe9, 0x3c,
  0x28, 0xc2, 0x6f, 0xbe, 0xc3, 0x1d, 0x6a, 0x3d, 0x73, 0x51, 0x55, 0x3d,
  0xd7, 0xb9, 0x2a, 0xbe, 0xf0, 0x2f, 0xb6, 0xbd, 0xea, 0xdd, 0x69, 0x3e,
  0x79, 0x11, 0xb5, 0x3d, 0xc5, 0x66, 0x3c, 0x3e, 0xda, 0x3e, 0x8f, 0xbd,
  0x55, 0x70, 0x7a, 0x3d, 0x45, 0x70, 0x2d, 0x3d, 0x51, 0x38, 0xe1, 0xbd,
  0xbe, 0xe3, 0xa3, 0x3d, 0xb6, 0x2a, 0x48, 0x3d, 0x4a, 0x4c, 0x48, 0xbd,
  0x61, 0x13, 0xa5, 0xbd, 0xf5, 0xaa, 0x08, 0x3e, 0x26, 0x0e, 0x76, 0x3d,
  0xd2, 0x85, 0x1f, 0xbe, 0x6d, 0xe4, 0x22, 0xbe, 0x28, 0x14, 0x57, 0xbe,
  0xef, 0x34, 0xfd, 0xbd, 0xfc, 0x88, 0x4d, 0x3e, 0xa2, 0xe9, 0x88, 0x3d,
  0xb0, 0xfb, 0x31, 0xbe, 0xd7, 0x04, 0x7d, 0xbe, 0x27, 0xc4, 0x4c, 0x3d,
  0x44, 0x00, 0x51, 0xbd, 0x62, 0x33, 0x0c, 0xbe, 0xc4, 0xf2, 0x22, 0x3e,
  0x9c, 0x12, 0x5d, 0xbe, 0x78, 0xbd, 0x02, 0xbe, 0x0b, 0xf7, 0x8d, 0xbd,
  0x9a, 0x68, 0x2c, 0x3e, 0xdf, 0x23, 0xeb, 0x3d, 0xd5, 0x90, 0xc4, 0xbc,
  0xd2, 0xd5, 0xcc, 0x3d, 0xef, 0x2c, 0x5a, 0x3d, 0x5b, 0xb6, 0xaf, 0x3d,
  0x04, 0x0c, 0x50, 0x3d, 0xb6, 0xdd, 0x69, 0x3e, 0x2a, 0x63, 0x6c, 0xbc,
  0x61, 0x1e, 0x13, 0xbe, 0xb5, 0xb2, 0x2e, 0xbe, 0xf9, 0x16, 0x81, 0x3e,
  0x4a, 0x3d, 0x2a, 0xbe, 0xc0, 0x03, 0x3a, 0xbd, 0x91, 0x82, 0xf0, 0xbb,
  0xa9, 0xde, 0x38, 0x3e, 0x7b, 0x1b, 0x0e, 0x3c, 0x77, 0x45, 0x8c, 0xbd,
  0x17, 0xd7, 0xbc, 0x3d, 0x8b, 0x63, 0x12, 0x3e, 0x81, 0x20, 0x39, 0x3e,
  0x94, 0x46, 0x13, 0x3e, 0x92, 0x7b, 0xdf, 0xbc, 0x64, 0x28, 0x12, 0xbe,
  0x67, 0xd4, 0xcd, 0xbd, 0x48, 0x86, 0x94, 0x3d, 0xd6, 0x58, 0x8a, 0x3c,
  0xbb, 0x3c, 0x1f, 0x3d, 0xd2, 0xb7, 0x69, 0xbc, 0xae, 0xcf, 0x33, 0x3e,
  0x85, 0x35, 0x09, 0xba, 0xf6, 0xda, 0xd6, 0xbd, 0x6a, 0x4d, 0x73, 0x3d,
  0x8b, 0x0e, 0x98, 0x3d, 0xda, 0x30, 0x1f, 0x3c, 0x24, 0xfc, 0x14, 0xbd,
  0x9b, 0x7a, 0x23, 0xbe, 0xe1, 0x42, 0x2e, 0xbe, 0xf7, 0x90, 0xd0, 0x3d,
  0xd3, 0xb5, 0x02, 0x3d, 0x79, 0xf9, 0x03, 0xbe, 0x07, 0x19, 0x88, 0x3d,
  0x1d, 0x85, 0x8d, 0x3d, 0xe3, 0xe6, 0x01, 0xbd, 0xbb, 0x16, 0xb3, 0xbc,
  0x08, 0xa5, 0x4b, 0x3e, 0x4b, 0x59, 0x32, 0x3e, 0xe6, 0xea, 0x05, 0xbb,
  0xa4, 0x56, 0xdf, 0xbd, 0xb4, 0xf3, 0x2e, 0xbe, 0x55, 0xd0, 0x9d, 0xbd,
  0xa1, 0x50, 0x2c, 0x3d, 0x4e, 0x8a, 0x1b, 0x3e, 0xf1, 0x18, 0x5f, 0x3e,
  0xcf, 0x35, 0x4a, 0xba, 0x7a, 0xaf, 0x06, 0xbe, 0x61, 0xcc, 0x8d, 0x3c,
  0x00, 0x48, 0x65, 0xbe, 0xef, 0x40, 0x75, 0x3e, 0x04, 0xfa, 0x73, 0x3e,
  0x2d, 0x0b, 0xea, 0x3d, 0xab, 0x06, 0xbe, 0xbb, 0xbc, 0x88, 0xe7, 0xbd,
  0x35, 0x67, 0xec, 0xbc, 0x54, 0x80, 0xa2, 0xbd, 0xc8, 0x2e, 0x84, 0xbc,
  0x75, 0x08, 0x0c, 0x3d, 0x86, 0x31, 0x6d, 0x3c, 0xe8, 0xaf, 0x38, 0x3d,
  0x60, 0xa5, 0x52, 0xbd, 0x43, 0x74, 0xc5, 0xbd, 0xab, 0xa3, 0x1c, 0x3e,
  0x34, 0x97, 0x26, 0xbe, 0x7d, 0x2d, 0xc4, 0xbd, 0xd9, 0x24, 0x00, 0x3b,
  0xcd, 0xc2, 0x50, 0x3e, 0xe1, 0x83, 0xa5, 0x3d, 0xdc, 0xd7, 0x2b, 0xbc,
  0xd0, 0xc2, 0xb3, 0x3c, 0x21, 0x6e, 0x77, 0xbd, 0xa2, 0xf6, 0x25, 0x3e,
  0x6f, 0xdc, 0x22, 0xbd, 0x85, 0xda, 0xbc, 0xbd, 0xb5, 0x44, 0xfe, 0xbc,
  0xcc, 0x54, 0xbb, 0x3d, 0x57, 0x2c, 0x0c, 0xbe, 0xdd, 0x0c, 0x34, 0xbc,
  0x90, 0x69, 0xa2, 0x3d, 0xf9, 0xa1, 0x91, 0xbd, 0xe6, 0x1f, 0xec, 0x3c,
  0xb2, 0x7e, 0xdf, 0x3d, 0x64, 0x2c, 0x2b, 0x3d, 0x1f, 0xb0, 0x8f, 0xbd,
  0x5d, 0x68, 0x1d, 0x3e, 0x27, 0x52, 0x0c, 0x3e, 0x27, 0xd0, 0x4f, 0x3e,
  0x09, 0xaa, 0xd3, 0x3c, 0x31, 0xc3, 0x89, 0x3d, 0x5e, 0x27, 0x37, 0xbb,
  0xad, 0x49, 0x25, 0x3e, 0x45, 0xce, 0x10, 0x3e, 0x35, 0x59, 0x05, 0x3e,
  0xf2, 0x1a, 0x48, 0x3e, 0x76, 0x3e, 0x3b, 0x3b, 0x07, 0x75, 0xea, 0x3d,
  0xd7, 0x0a, 0x45, 0x3e, 0x6f, 0x84, 0x53, 0xbe, 0xc6, 0x56, 0xd7, 0x3c,
  0xfb, 0x0a, 0xc5, 0x3c, 0x35, 0x2e, 0xec, 0xbd, 0x21, 0x32, 0x5f, 0x3e,
  0x7c, 0x8e, 0x8d, 0x3d, 0x67, 0xd2, 0x1c, 0x3e, 0xdd, 0x38, 0x29, 0x3e,
  0x52, 0x44, 0x01, 0xbd, 0x1c, 0x7b, 0x72, 0x3c, 0x7d, 0x11, 0xb3, 0x3d,
  0x09, 0xf2, 0x23, 0x3e, 0x87, 0xb8, 0xca, 0xbc, 0xdd, 0xd4, 0x8c, 0x3d,
  0xbe, 0x5c, 0x87, 0x3d, 0x99, 0xc1, 0xdf, 0x3d, 0x79, 0x8a, 0x0a, 0x3e,
  0x0c, 0xdc, 0x20, 0x3e, 0x25, 0xb8, 0x07, 0xbe, 0x17, 0x9e, 0x9c, 0x3d,
  0xe5, 0xe5, 0x62, 0x3e, 0x83, 0xc3, 0x22, 0x3d, 0x8f, 0xce, 0x51, 0xbe,
  0x09, 0x85, 0x65, 0xbd, 0x9f, 0x2f, 0x35, 0x3e, 0xfe, 0x97, 0x8f, 0xbd,
  0x84, 0xa7, 0x0b, 0x3d, 0x5a, 0x48, 0x61, 0x3e, 0xcd, 0xc9, 0x8c, 0x3d,
  0xef, 0x6d, 0x05, 0xbe, 0x54, 0xf4, 0x96, 0x3d, 0xf7, 0xec, 0x82, 0x3d,
  0xce, 0xed, 0x00, 0xbc, 0xc4, 0x2b, 0x02, 0xbe, 0x61, 0x19, 0x88, 0x3c,
  0xa8, 0x42, 0x07, 0x3e, 0x34, 0xd9, 0xc7, 0x3d, 0x72, 0x02, 0xb0, 0x3d,
  0x88, 0x96, 0x26, 0x3e, 0x7a, 0x6c, 0x22, 0x3e, 0x93, 0x11, 0x89, 0x3d,
  0x54, 0x55, 0xc2, 0x3c, 0x6f, 0xb6, 0x21, 0x3c, 0xce, 0x4d, 0xec, 0xbd,
  0xa7, 0x0c, 0x2f, 0x3e, 0x6b, 0x58, 0x08, 0xbe, 0x88, 0x09, 0x74, 0x3d,
  0xf0, 0x67, 0x27, 0x3e, 0xd7, 0x43, 0x27, 0x3e, 0x66, 0x20, 0x4a, 0xbe,
  0x76, 0xef, 0x45, 0xbe, 0x7f, 0xb5, 0x71, 0xbd, 0xb8, 0xbb, 0xab, 0x3d,
  0x98, 0x6a, 0x42, 0x3d, 0x1b, 0xf9, 0x58, 0xbd, 0x12, 0x59, 0x89, 0x3d,
  0x57, 0x60, 0x42, 0x3e, 0x40, 0x00, 0x8e, 0x3e, 0xcd, 0x5b, 0x18, 0x3d,
  0xb0, 0xeb, 0x34, 0xbd, 0x9e, 0x48, 0x5e, 0x3e, 0x0f, 0xfa, 0x5e, 0x3e,
  0x7b, 0x9c, 0x02, 0xbe, 0x05, 0xfd, 0xaa, 0x3a, 0x96, 0xd7, 0xf1, 0x3b,
  0x32, 0x40, 0x73, 0x3d, 0x2d, 0xa1, 0x83, 0xbb, 0x45, 0x57, 0x28, 0xbe,
  0xc1, 0x4d, 0xd7, 0xbc, 0xa9, 0xef, 0xbe, 0xbd, 0x8c, 0x5f, 0x42, 0xbc,
  0xa5, 0x8f, 0x3f, 0x3d, 0xd5, 0x6e, 0x82, 0x3d, 0x9b, 0x02, 0xe8, 0x3d,
  0xb2, 0x74, 0xa1, 0x3c, 0xca, 0xea, 0x04, 0xbe, 0xc3, 0xc5, 0x48, 0xbe,
  0xd8, 0x65, 0x22, 0x3d, 0x38, 0x59, 0xc0, 0x3d, 0xd3, 0x13, 0x8c, 0x3d,
  0x2b, 0xb9, 0x00, 0x3e, 0x27, 0x3f, 0xca, 0x3d, 0x30, 0x60, 0x02, 0x3d,
  0x94, 0xe9, 0xff, 0x3d, 0x5f, 0x06, 0xf1, 0xbd, 0xb8, 0x8e, 0x27, 0xbd,
  0x87, 0x43, 0x22, 0x3e, 0xbb, 0xef, 0x42, 0xbd, 0x67, 0xe0, 0xb5, 0x3d,
  0x07, 0x22, 0x92, 0xb8, 0xdc, 0xd6, 0xff, 0x3d, 0x72, 0xac, 0xcd, 0xbc,
  0x50, 0x16, 0xde, 0x3b, 0x7b, 0x0c, 0x18, 0x3c, 0x52, 0x26, 0x0b, 0x3e,
  0x96, 0x8c, 0x77, 0xbb, 0x0a, 0xd7, 0xf2, 0xbd, 0x6a, 0x46, 0xb4, 0x3d,
  0x8e, 0x61, 0x0b, 0x3e, 0xd2, 0xb1, 0xf5, 0xbd, 0x54, 0x8c, 0x83, 0x3d,
  0xe7, 0xae, 0x0d, 0xbd, 0x34, 0xfd, 0x1a, 0xbe, 0x6c, 0xc1, 0x13, 0xbe,
  0x4f, 0x11, 0xf5, 0x3c, 0x7c, 0x8c, 0x07, 0x3e, 0x9b, 0xef, 0x29, 0x3e,
  0xed, 0x58, 0x0b, 0x3e, 0x06, 0xda, 0xa3, 0xbd, 0x72, 0x84, 0x05, 0x3e,
  0x19, 0xa2, 0x06, 0x3c, 0x6e, 0x89, 0x7d, 0xbd, 0xe3, 0xd9, 0x35, 0x3e,
  0xfd, 0x18, 0xe2, 0xbd, 0x18, 0xd0, 0xba, 0xbb, 0xe2, 0x98, 0x75, 0x3e,
  0xdb, 0x7c, 0x27, 0xbd, 0x57, 0xda, 0x16, 0xbe, 0x4e, 0x65, 0x8d, 0xbd,
  0x77, 0x8b, 0x47, 0x3e, 0x34, 0x5d, 0x3c, 0x3e, 0xba, 0x0f, 0xd0, 0x3d,
  0x29, 0x86, 0x8a, 0xbc, 0x14, 0x4b, 0x7b, 0x3d, 0x41, 0xd1, 0xd4, 0x3d,
  0x74, 0x51, 0xb3, 0xbd, 0x16, 0x19, 0xc9, 0x3c, 0xc9, 0xf3, 0x0b, 0xbe,
  0xc3, 0x15, 0x88, 0xbd, 0xef, 0x08, 0x29, 0x3e, 0x74, 0x68, 0x02, 0x3e,
  0x67, 0x34, 0x69, 0xbb, 0xf7, 0x54, 0x32, 0x3e, 0x5b, 0x21, 0x0e, 0x3e,
  0x8b, 0x0b, 0xaf, 0x3d, 0x7f, 0x26, 0x25, 0xbb, 0xa0, 0xf9, 0xbc, 0xbd,
  0x64, 0x3e, 0xf5, 0x3d, 0x98, 0x22, 0x4d, 0x3e, 0xcd, 0xb6, 0xf7, 0xbd,
  0x16, 0xf1, 0x94, 0xbc, 0xb9, 0xe2, 0xc4, 0xbd, 0xe2, 0x17, 0x0b, 0xbe,
  0x02, 0xea, 0xc9, 0xbc, 0x41, 0x41, 0x8d, 0xbd, 0x00, 0x08, 0x34, 0x3e,
  0x4d, 0x55, 0x50, 0x3e, 0x4c, 0x86, 0x6f, 0xbd, 0x14, 0xa4, 0xdf, 0xbd,
  0xcf, 0xeb, 0x65, 0xbe, 0x01, 0x0f, 0x33, 0x3d, 0x4a, 0x88, 0x2e, 0x3e,
  0xac, 0x01, 0xe0, 0xbb, 0x40, 0xa9, 0xd1, 0xbc, 0xee, 0xe2, 0xaa, 0x3d,
  0x41, 0x8b, 0xe2, 0xb9, 0xca, 0xd5, 0x82, 0xbd, 0xb1, 0x7a, 0xc0, 0xbc,
  0xca, 0x38, 0xdc, 0xbc, 0x8c, 0x03, 0xf4, 0xbc, 0xf2, 0x67, 0x34, 0x3e,
  0x69, 0xa4, 0x4b, 0x3e, 0x6f, 0x08, 0x6b, 0x3e, 0x10, 0xa3, 0x16, 0x3e,
  0x32, 0x15, 0xe4, 0x3c, 0x98, 0x0b, 0xa4, 0x3d, 0xee, 0xe7, 0x90, 0xbc,
  0x56, 0xc1, 0x18, 0x3e, 0x08, 0x21, 0x49, 0xbd, 0x72, 0x73, 0x92, 0xbd,
  0xe4, 0xbe, 0xd4, 0x3d, 0xa4, 0x3a, 0x3b, 0xbe, 0x27, 0x9c, 0x57, 0x3e,
  0xe3, 0x38, 0xa5, 0x3d, 0x05, 0x75, 0x03, 0xbe, 0x56, 0x12, 0x60, 0x3e,
  0x72, 0x4a, 0x15, 0xbe, 0xd0, 0x8e, 0xfb, 0x3d, 0x46, 0x0a, 0xa4, 0x3c,
  0xb7, 0xff, 0x09, 0x3e, 0x7b, 0xd1, 0x3c, 0x3e, 0x7c, 0x21, 0x47, 0xbd,
  0xb0, 0x54, 0x0e, 0xba, 0xec, 0xb1, 0xa7, 0xbd, 0x29, 0x5f, 0x02, 0x3c,
  0xe0, 0xd4, 0x31, 0x3b, 0xe1, 0x3c, 0xaa, 0x3d, 0x73, 0xd7, 0xd4, 0xbd,
  0xba, 0x9e, 0x47, 0x3d, 0x01, 0x76, 0x5b, 0x3d, 0x13, 0x20, 0xe4, 0xbd,
  0x97, 0x2c, 0x91, 0xbd, 0x78, 0x26, 0xf1, 0x3d, 0xef, 0x63, 0x04, 0xbe,
  0x1f, 0xd4, 0x78, 0xbc, 0x9d, 0x58, 0x77, 0x3d, 0x40, 0xa4, 0x17, 0x3d,
  0xbe, 0x12, 0x59, 0x3d, 0x96, 0xe0, 0x2a, 0xbe, 0xc2, 0x98, 0x93, 0x3e,
  0xd9, 0x13, 0x35, 0xbd, 0xe4, 0x2d, 0x3b, 0x3e, 0xbb, 0x00, 0x88, 0xbd,
  0x0a, 0x40, 0x71, 0xbd, 0x1f, 0x38, 0x14, 0xbd, 0x0a, 0xfa, 0xe5, 0x3d,
  0x65, 0xcb, 0x3a, 0xbb, 0x46, 0x26, 0xf8, 0x3d, 0x74, 0x1a, 0x76, 0x3c,
  0xfd, 0xde, 0x75, 0x3d, 0x69, 0xae, 0x00, 0x3d, 0x40, 0xd7, 0x39, 0x3e,
  0x60, 0xe1, 0x5d, 0x3e, 0xb2, 0xd2, 0x6f, 0xbe, 0x29, 0xd9, 0x81, 0xbd,
  0xa9, 0x88, 0x0e, 0xbe, 0xc8, 0xec, 0x81, 0xbd, 0x59, 0x39, 0xf9, 0xbd,
  0x28, 0x61, 0xd7, 0xbd, 0x6f, 0x68, 0x70, 0x3d, 0xbb, 0xe3, 0xf2, 0x3d,
  0x8a, 0x71, 0x26, 0xbe, 0x07, 0xd3, 0x17, 0x3e, 0x65, 0xef, 0x99, 0xbd,
  0x12, 0x8a, 0xfa, 0x3d, 0x77, 0xef, 0x4f, 0x3e, 0x4f, 0xe6, 0xba, 0x3d,
  0xc2, 0x6e, 0x18, 0xbe, 0x49, 0x09, 0xe5, 0x3d, 0xc9, 0x68, 0x15, 0xbe,
  0x81, 0x51, 0x53, 0x3d, 0xbb, 0xf0, 0x9e, 0x3d, 0x92, 0x60, 0x30, 0x3e,
  0x8b, 0x52, 0x52, 0x3d, 0x0f, 0x9e, 0xc6, 0x3d, 0x94, 0x72, 0x0c, 0xbe,
  0x87, 0xca, 0xaf, 0x3b, 0x73, 0xd3, 0x82, 0xbe, 0xfc, 0x47, 0xcb, 0x3d,
  0xe3, 0x73, 0xf4, 0x3d, 0x3b, 0x71, 0x66, 0xbe, 0xc4, 0x7c, 0x14, 0x3e,
  0xb5, 0x59, 0xa4, 0x3d, 0x1f, 0xe1, 0xc0, 0x3d, 0x91, 0xa2, 0x5d, 0xbd,
  0x96, 0xa3, 0x37, 0x3e, 0x92, 0xb1, 0x02, 0xbc, 0x0f, 0x0a, 0x56, 0x3c,
  0x99, 0x40, 0xc2, 0xbd, 0x1f, 0x9b, 0x18, 0xbe, 0xfa, 0x27, 0x1f, 0xbe,
  0x83, 0xd1, 0xa1, 0x3c, 0xde, 0x3f, 0xba, 0x3d, 0xb6, 0x27, 0xf4, 0x3b,
  0x72, 0x5e, 0xcc, 0xbd, 0x5f, 0xb5, 0x4a, 0x3e, 0x59, 0x8d, 0x76, 0x3d,
  0x92, 0xaf, 0x75, 0x3d, 0x17, 0xf3, 0x1b, 0x3e, 0xda, 0xb7, 0xd2, 0x3c,
  0x0a, 0x47, 0x82, 0xbd, 0xc9, 0xd9, 0xc7, 0x3d, 0x8a, 0x9c, 0x29, 0x3e,
  0xf0, 0x21, 0x32, 0xbe, 0x2a, 0xd0, 0x44, 0x3e, 0xb2, 0xa5, 0xf4, 0x3d,
  0x02, 0xf1, 0x00, 0x3e, 0xb5, 0x4a, 0xf2, 0xbd, 0x42, 0x51, 0xcf, 0x3d,
  0x7e, 0x96, 0x1d, 0x3d, 0xaf, 0xe5, 0x25, 0xbe, 0x0a, 0x37, 0x89, 0xbd,
  0x6b, 0xcb, 0x2d, 0x3d, 0x3b, 0x3d, 0xf7, 0xbd, 0x86, 0x01, 0xbe, 0xbc,
  0xcd, 0xac, 0xbd, 0x3d, 0x79, 0xf3, 0x32, 0xbe, 0x10, 0xb7, 0x49, 0x3d,
  0x7a, 0x10, 0xf7, 0x3c, 0x9a, 0x1b, 0x2e, 0xbd, 0x12, 0xe3, 0xdc, 0x3d,
  0x9a, 0xc8, 0x1a, 0xbe, 0xd7, 0x53, 0x9d, 0x3d, 0x59, 0x80, 0xe0, 0xbc,
  0xb4, 0xd9, 0xc7, 0x3d, 0xc8, 0x85, 0xf5, 0xbc, 0x91, 0xf7, 0x4a, 0xbd,
  0x91, 0x2c, 0xb1, 0x3d, 0x1b, 0xa0, 0xe9, 0x3d, 0x62, 0x21, 0xd8, 0x3d,
  0x17, 0xd0, 0x28, 0x3d, 0xc1, 0x1c, 0xf9, 0x3d, 0xdf, 0xdf, 0xc8, 0x3d,
  0x3d, 0x43, 0x56, 0x3d, 0x3c, 0xa8, 0x4f, 0x3d, 0xa3, 0x18, 0x25, 0xbd,
  0x9b, 0xaa, 0xbd, 0xbd, 0xb3, 0x07, 0xdd, 0x3d, 0x76, 0x23, 0xf0, 0xbd,
  0x35, 0x1a, 0x8a, 0xbd, 0x25, 0x65, 0xd7, 0xbd, 0x8a, 0x2f, 0x22, 0xbe,
  0x50, 0x0f, 0xd6, 0xbb, 0xa3, 0x00, 0x89, 0x3d, 0xe2, 0xe4, 0x23, 0x3e,
  0x39, 0x6b, 0xb2, 0x3d, 0x37, 0x03, 0x5d, 0xbd, 0x26, 0x13, 0xe2, 0xbd,
  0xbe, 0x5a, 0x0b, 0x3e, 0x40, 0xfd, 0xb7, 0xbd, 0x23, 0xf2, 0x91, 0x3d,
  0xd3, 0xcd, 0xa1, 0xbd, 0x99, 0xaa, 0x4f, 0xbe, 0x63, 0x1b, 0x8a, 0xbd,
  0xf8, 0x7c, 0x30, 0xbe, 0xf1, 0xdd, 0xac, 0x3d, 0xa8, 0x02, 0x8a, 0x3c,
  0x9d, 0x97, 0x86, 0x3d, 0xa5, 0xa9, 0x63, 0x3e, 0x81, 0x41, 0x1d, 0x3e,
  0x9a, 0xfd, 0x17, 0xbe, 0xab, 0x3c, 0xde, 0x3d, 0x2c, 0x96, 0x8a, 0xbc,
  0x87, 0x2b, 0x01, 0xbd, 0xab, 0xf5, 0xb6, 0x3c, 0xb7, 0x1f, 0x10, 0xbe,
  0x2d, 0x77, 0x8c, 0xbb, 0x68, 0xbc, 0x25, 0xbe, 0x69, 0x55, 0xaa, 0xbc,
  0xf0, 0x0d, 0xa4, 0x3d, 0x96, 0xe4, 0x99, 0x3d, 0xdb, 0xb4, 0x45, 0x3e,
  0x2d, 0x26, 0xec, 0x3d, 0x83, 0x7d, 0x1f, 0xbb, 0x1d, 0xb5, 0x63, 0x3d,
  0x8a, 0x0a, 0x2c, 0x3e, 0xc9, 0x6b, 0x0c, 0x3d, 0x22, 0xb1, 0x28, 0xbe,
  0xe7, 0x11, 0x6c, 0x3d, 0x13, 0xdf, 0x2c, 0xbe, 0x2e, 0xad, 0xe1, 0xbd,
  0x6e, 0x32, 0x0c, 0xbe, 0x47, 0xe1, 0x73, 0x3d, 0x83, 0x3a, 0x8a, 0x3d,
  0x94, 0xec, 0xac, 0x3d, 0x7a, 0x0e, 0x77, 0x3d, 0x5e, 0x33, 0xe2, 0x3d,
  0x6e, 0x7e, 0xa8, 0xbd, 0xf3, 0x89, 0xa0, 0x3d, 0x36, 0xe3, 0x13, 0x3e,
  0x93, 0x32, 0xae, 0xbd, 0xd5, 0xca, 0x49, 0x3d, 0x09, 0xc9, 0xa8, 0xbd,
  0x8a, 0xb9, 0x39, 0xbe, 0x0a, 0x52, 0xb6, 0x3d, 0x4a, 0x38, 0x7c, 0x3e,
  0x8f, 0xac, 0x8e, 0xbc, 0x31, 0x1b, 0xc8, 0x3b, 0x92, 0x4e, 0xf2, 0xbd,
  0xce, 0xa7, 0xcb, 0x3d, 0xfb, 0x22, 0x17, 0xbd, 0xd0, 0x31, 0x31, 0x3d,
  0x59, 0x1e, 0x1d, 0xbe, 0x2a, 0xc8, 0xeb, 0x3d, 0x50, 0xdc, 0x11, 0x3e,
  0x44, 0x3b, 0xcc, 0xbc, 0x76, 0xd3, 0x20, 0xbe, 0x64, 0xd2, 0xef, 0x3c,
  0x5f, 0x5e, 0x98, 0xbd, 0x09, 0x65, 0x66, 0xbe, 0xc6, 0x11, 0x06, 0x3e,
  0xd2, 0xab, 0xb9, 0x3d, 0xa2, 0x1b, 0x5d, 0xbc, 0x37, 0x62, 0x3e, 0xbd,
  0x21, 0x33, 0x6b, 0xbd, 0x71, 0x57, 0x0a, 0xbd, 0xb7, 0x5d, 0xc2, 0x3d,
  0x57, 0x9a, 0x04, 0xbe, 0x82, 0x0a, 0x9b, 0xba, 0xac, 0xd8, 0x0b, 0xbe,
  0x58, 0xbf, 0x8d, 0xbd, 0x53, 0xaa, 0x63, 0xbd, 0xf8, 0xe9, 0xfb, 0xbc,
  0x1e, 0xa4, 0x34, 0x3e, 0x35, 0x65, 0x7d, 0xbe, 0xd1, 0x81, 0xcb, 0xbd,
  0xc2, 0x11, 0xca, 0xbc, 0xfb, 0x30, 0x4d, 0xbc, 0x62, 0xc8, 0xf3, 0x3d,
  0x98, 0xe0, 0x87, 0xbd, 0xd3, 0x87, 0x8a, 0xbd, 0x8f, 0x7c, 0xde, 0x3d,
  0x30, 0x4f, 0x09, 0x3e, 0xe4, 0xa5, 0x52, 0x3e, 0x09, 0x17, 0x08, 0xbe,
  0x08, 0x42, 0x3d, 0xbe, 0xb3, 0x41, 0xbb, 0x3d, 0xaa, 0x21, 0xc5, 0x3c,
  0x74, 0xf7, 0xe9, 0xbc, 0x19, 0xfb, 0x23, 0xbe, 0x10, 0xd8, 0x3a, 0xbd,
  0x83, 0x08, 0x1b, 0x3d, 0x2e, 0x34, 0xc1, 0x3d, 0x8b, 0x78, 0x8c, 0xbd,
  0x07, 0x11, 0xe0, 0xbc, 0x4a, 0xf2, 0x06, 0xbb, 0x94, 0xfd, 0x34, 0xbe,
  0xf3, 0x2c, 0x09, 0xbe, 0xa3, 0x01, 0x05, 0xbe, 0xe3, 0xb5, 0xfc, 0xbc,
  0x26, 0xdf, 0x20, 0xbd, 0xac, 0x91, 0x0b, 0x3d, 0x4e, 0x4e, 0x24, 0xbe,
  0xb2, 0xdc, 0x28, 0xbd, 0x49, 0x24, 0xab, 0xbd, 0x52, 0x6b, 0x95, 0x3d,
  0x79, 0x17, 0xb2, 0x3c, 0x4b, 0x9a, 0x14, 0x3e, 0x83, 0xd3, 0xf1, 0xbd,
  0x43, 0x1c, 0xc6, 0x3d, 0x02, 0x92, 0xd2, 0x3c, 0xc2, 0xa3, 0x45, 0x3e,
  0x44, 0x58, 0x0e, 0xbc, 0xdb, 0x2b, 0x17, 0xbe, 0xf6, 0x60, 0x51, 0x3d,
  0x03, 0xbd, 0xaf, 0x3d, 0xce, 0x75, 0x9a, 0x3d, 0xf4, 0x48, 0xfb, 0xbd,
  0xe3, 0xdb, 0x17, 0xbe, 0xf8, 0x57, 0x2f, 0x3e, 0x57, 0xbc, 0x98, 0xbb,
  0x74, 0x69, 0x02, 0xbe, 0x63, 0xef, 0x7c, 0x3c, 0x47, 0xad, 0x51, 0x3e,
  0x18, 0x29, 0xfe, 0xbd, 0x78, 0x45, 0x8c, 0xbd, 0xf7, 0x8c, 0x42, 0xbe,
  0x6d, 0x6a, 0x28, 0xbd, 0x4a, 0x29, 0x21, 0xbe, 0xfb, 0x41, 0x61, 0xbd,
  0x91, 0x08, 0x15, 0xbe, 0x5b, 0x66, 0x5c, 0x3e, 0x2e, 0x6b, 0x74, 0xbd,
  0xa0, 0xd6, 0x8b, 0x3c, 0xc8, 0x31, 0x84, 0x3d, 0xa2, 0xa8, 0xe1, 0xbd,
  0xae, 0x6e, 0x8e, 0xbd, 0x0d, 0x0a, 0xe0, 0x3d, 0x65, 0x9b, 0xf5, 0x3d,
  0xdb, 0xca, 0x80, 0xbe, 0x28, 0x22, 0x39, 0x3d, 0x95, 0xba, 0xa0, 0x3d,
  0x11, 0x2b, 0x0e, 0x3e, 0x6f, 0xdf, 0xfd, 0x3d, 0x1a, 0x1c, 0xe0, 0xbd,
  0x69, 0xe2, 0x89, 0x3d, 0x9f, 0xe2, 0x59, 0xbc, 0x42, 0xe5, 0xe1, 0xbd,
  0x71, 0xdf, 0x19, 0x3c, 0x64, 0xc2, 0x2a, 0x3e, 0x9b, 0x86, 0x22, 0xbc,
  0x81, 0x14, 0x04, 0xba, 0xcb, 0x18, 0x66, 0xbd, 0xa8, 0xe4, 0x41, 0x3e,
  0xba, 0xb0, 0x2f, 0xbe, 0xf1, 0x1e, 0x1d, 0xbb, 0xab, 0x7b, 0x31, 0x3e,
  0xb6, 0x0c, 0x3e, 0xbd, 0xba, 0xc4, 0x0c, 0x3e, 0x26, 0x0f, 0x1f, 0x3e,
  0xf5, 0x54, 0xde, 0x3c, 0x21, 0xa8, 0x8d, 0x3d, 0x10, 0xab, 0x64, 0xbc,
  0x3d, 0xf8, 0xc0, 0x3d, 0x49, 0x4e, 0x17, 0x3d, 0xef, 0x99, 0x4a, 0xbd,
  0x76, 0x22, 0x5b, 0x3d, 0xa6, 0x70, 0xe2, 0xbd, 0x54, 0xff, 0x46, 0x3d,
  0x4b, 0x9e, 0x89, 0xbd, 0x8f, 0x40, 0x10, 0xbe, 0x79, 0x40, 0x69, 0xbd,
  0xa8, 0xfb, 0x1b, 0xbc, 0x60, 0xb4, 0x1d, 0x3e, 0x6c, 0x3c, 0xbd, 0xbd,
  0xe2, 0x16, 0xd5, 0x3d, 0x2f, 0x38, 0x70, 0x3d, 0x0c, 0x06, 0x05, 0xbd,
  0x15, 0x82, 0x26, 0xbe, 0xc1, 0x6f, 0x75, 0xbe, 0x7a, 0xe8, 0xcc, 0xbd,
  0x3c, 0x92, 0x03, 0xbe, 0xc5, 0x0a, 0x1d, 0x3d, 0x75, 0x40, 0x89, 0xbd,
  0x03, 0xbe, 0x30, 0xbe, 0x61, 0xde, 0x64, 0xbd, 0xc4, 0x5e, 0x3b, 0x3d,
  0x42, 0xa9, 0xa1, 0x3d, 0x15, 0x27, 0x23, 0x3e, 0x8c, 0x20, 0x89, 0x3d,
  0xeb, 0x3a, 0x3e, 0x3e, 0x2b, 0xfe, 0x7c, 0xbd, 0x3d, 0x3c, 0xaa, 0x3d,
  0x44, 0x98, 0x24, 0xbe, 0xb5, 0x8f, 0x53, 0xbe, 0x12, 0x59, 0xc5, 0x3d,
  0x8d, 0xe7, 0xde, 0x3d, 0x3e, 0xca, 0x1b, 0xbd, 0x38, 0x20, 0x28, 0xbd,
  0xb8, 0x8c, 0xe6, 0x3d, 0x74, 0x85, 0xef, 0x3c, 0xe4, 0x48, 0xba, 0xbd,
  0x4f, 0x13, 0x60, 0x3e, 0x83, 0x0e, 0x66, 0xbd, 0x96, 0xe1, 0x28, 0x3d,
  0x76, 0x47, 0x99, 0x3e, 0x7d, 0xed, 0x9b, 0x3d, 0x09, 0x82, 0x56, 0xbd,
  0x1f, 0x22, 0xf0, 0xbc, 0xac, 0x0c, 0xe9, 0x3d, 0x00, 0x48, 0xfa, 0x3d,
  0x93, 0xd2, 0xb6, 0xbd, 0x57, 0xa4, 0x2e, 0x3c, 0x1a, 0xeb, 0x45, 0xbd,
  0xcb, 0x4e, 0x2e, 0xbe, 0xa3, 0xe8, 0x06, 0x3e, 0xa7, 0x53, 0x46, 0xbe,
  0x40, 0x53, 0x0d, 0x3d, 0xfa, 0xba, 0x69, 0x3e, 0xd4, 0xaa, 0x16, 0x3e,
  0x0e, 0x2d, 0x32, 0xbe, 0xa6, 0xd9, 0x14, 0xbe, 0xa3, 0xd7, 0xea, 0x3d,
  0x1a, 0x2d, 0x0e, 0x3e, 0xd8, 0x6c, 0x3c, 0x3d, 0xbd, 0xc7, 0x0f, 0xbe,
  0x9a, 0xe9, 0xa4, 0xbd, 0x50, 0x8e, 0x97, 0xbe, 0x8e, 0x97, 0xd8, 0x3d,
  0x25, 0xcd, 0x19, 0xbe, 0x3b, 0x49, 0x78, 0xbc, 0xd4, 0x7a, 0x43, 0x3e,
  0xdb, 0x10, 0xe3, 0xbc, 0x4f, 0xec, 0xd6, 0xbd, 0x34, 0x16, 0x8b, 0x3d,
  0xa6, 0xa8, 0x95, 0xbd, 0x91, 0x1a, 0x55, 0x3d, 0x94, 0x81, 0xb9, 0xbd,
  0x20, 0xc5, 0x04, 0x3e, 0x00, 0x3c, 0x46, 0xbd, 0x5d, 0xde, 0xad, 0xbc,
  0x6f, 0x14, 0xc4, 0x3c, 0x05, 0x15, 0x7a, 0x3d, 0xc8, 0x55, 0x08, 0xbc,
  0x4b, 0xea, 0xdb, 0x3d, 0x6a, 0x91, 0x26, 0x3d, 0x0c, 0x60, 0xad, 0x3d,
  0xfe, 0x38, 0x05, 0xbe, 0xf2, 0x6c, 0xcc, 0x3d, 0x6d, 0xd4, 0xf7, 0xbd,
  0x73, 0x28, 0xa8, 0x3d, 0xb9, 0x70, 0x90, 0x3d, 0xbc, 0xea, 0x3f, 0xbe,
  0x54, 0x64, 0x15, 0xbe, 0x20, 0xff, 0x3f, 0xbd, 0xcb, 0xa1, 0xb7, 0x3c,
  0xc5, 0x75, 0xb9, 0x3d, 0xe1, 0xf3, 0x11, 0x3d, 0x37, 0x94, 0x24, 0x3e,
  0x7c, 0x61, 0xde, 0xbd, 0x1b, 0x1a, 0x0f, 0x3e, 0xfe, 0x2b, 0x09, 0x3e,
  0x18, 0x6b, 0x0d, 0xbd, 0x94, 0xd9, 0x6d, 0xbe, 0x48, 0xeb, 0x33, 0x3d,
  0x1f, 0x55, 0x05, 0x3e, 0xaf, 0xba, 0x8a, 0x3e, 0x70, 0x41, 0x51, 0xbe,
  0xeb, 0x70, 0x29, 0x3e, 0x6e, 0xd5, 0xed, 0xbd, 0x1b, 0x2a, 0x83, 0xbd,
  0x08, 0x19, 0x0b, 0xbe, 0xc8, 0xed, 0x50, 0x3e, 0x41, 0xe5, 0xd5, 0xbd,
  0x23, 0x9b, 0xdd, 0xbd, 0x16, 0x79, 0x55, 0xbd, 0x8d, 0x1d, 0xb5, 0x3d,
  0xd2, 0x33, 0xd3, 0xbd, 0xb2, 0x1a, 0x21, 0x3d, 0xb1, 0x03, 0x56, 0x3e,
  0xf9, 0xed, 0x85, 0xbe, 0x66, 0xf4, 0x0e, 0x3e, 0x05, 0x47, 0xf4, 0xbc,
  0x52, 0x37, 0xd1, 0xbd, 0x22, 0xe7, 0xa4, 0xbd, 0x5c, 0x03, 0x0d, 0x3d,
  0x18, 0x18, 0x63, 0xbd, 0xff, 0x78, 0x2d, 0x3e, 0xe7, 0x97, 0x8f, 0xbc,
  0xcf, 0x01, 0x09, 0x3d, 0xf2, 0x26, 0x7e, 0x3d, 0xf2, 0x77, 0xea, 0xbd,
  0x98, 0x1b, 0xb0, 0x3d, 0xc7, 0xf1, 0x14, 0xbd, 0x8d, 0x48, 0xc8, 0x3d,
  0x04, 0xb9, 0x8c, 0xbd, 0x86, 0xda, 0x40, 0x3e, 0x68, 0x28, 0x62, 0x3d,
  0x4a, 0x4f, 0xf3, 0xbd, 0xd3, 0xe6, 0xd0, 0x3d, 0xc5, 0x4f, 0x64, 0x3d,
  0xf1, 0x9e, 0x68, 0x3c, 0xd6, 0xfa, 0x87, 0xbd, 0xb4, 0x66, 0x95, 0xbd,
  0xfa, 0xee, 0x0a, 0x3d, 0xe2, 0x2d, 0x17, 0xbe, 0x5e, 0x30, 0xc6, 0xbd,
  0x2d, 0x34, 0x74, 0x3d, 0xca, 0x61, 0xb1, 0xbd, 0xa6, 0x1f, 0x92, 0xbd,
  0x7f, 0x9b, 0x05, 0xbd, 0x37, 0xa2, 0xf0, 0x3d, 0xfd, 0x6c, 0xb0, 0xbc,
  0x62, 0x44, 0x44, 0x3e, 0x32, 0x6f, 0x95, 0x3d, 0xa1, 0x9c, 0xae, 0xbc,
  0x7c, 0x47, 0x49, 0x3d, 0xf4, 0x41, 0xf7, 0x3b, 0xc3, 0xff, 0x65, 0xbd,
  0xdc, 0xa2, 0x56, 0x3d, 0xd1, 0xd9, 0xd1, 0xbc, 0x36, 0xe2, 0x58, 0x3e,
  0x06, 0xe0, 0xb5, 0x3c, 0x02, 0x63, 0x57, 0xbd, 0x60, 0x8a, 0x94, 0x3c,
  0xd6, 0xa9, 0x8a, 0xbd, 0x81, 0x46, 0xb2, 0xbc, 0x47, 0x51, 0x10, 0xbb,
  0xfc, 0x7f, 0x40, 0xbe, 0x23, 0xb5, 0xc8, 0xbd, 0x8a, 0x72, 0xd2, 0x3d,
  0x05, 0xbb, 0x28, 0xbe, 0xc0, 0x2b, 0x6b, 0x3e, 0x24, 0x9e, 0x69, 0x3e,
  0xb2, 0xc8, 0xe0, 0x3d, 0xd5, 0x82, 0xb2, 0x3c, 0x61, 0xe9, 0xf0, 0xbd,
  0xa4, 0x55, 0x54, 0xbe, 0x97, 0x52, 0x95, 0xbd, 0xde, 0xc0, 0x19, 0xbd,
  0x2c, 0x66, 0xaf, 0xbc, 0x31, 0xa4, 0xd5, 0xbd, 0xe8, 0xad, 0x5a, 0xbd,
  0x3d, 0x78, 0x4f, 0xbe, 0x1b, 0x6a, 0xeb, 0x3d, 0x10, 0xb6, 0xd6, 0x3d,
  0x63, 0x94, 0x83, 0x3d, 0xc8, 0xa8, 0x0f, 0xbd, 0x11, 0xc5, 0x64, 0xbe,
  0x7e, 0x4e, 0xd7, 0xbd, 0x33, 0x4b, 0xa6, 0xbc, 0x6f, 0x23, 0x50, 0xbd,
  0x90, 0x5b, 0xc3, 0x3d, 0x6d, 0x52, 0x19, 0xbe, 0x68, 0xba, 0xe4, 0xbd,
  0x5d, 0xe4, 0x66, 0xbd, 0x10, 0x19, 0x25, 0xbe, 0xf3, 0x84, 0x7c, 0x3d,
  0x1e, 0xc7, 0x90, 0xbd, 0x18, 0x31, 0x29, 0x3e, 0xc4, 0x4c, 0xd0, 0xbb,
  0xe5, 0xfd, 0xb0, 0x3d, 0x3a, 0xc0, 0x8d, 0xbd, 0xbd, 0x17, 0x21, 0xbe,
  0x4b, 0x6e, 0xa4, 0xbd, 0x73, 0x81, 0x25, 0xbc, 0x50, 0xbd, 0xfe, 0x3c,
  0x8e, 0x27, 0x09, 0xbe, 0x1f, 0x2d, 0xdf, 0xbc, 0x9b, 0x20, 0x08, 0x3e,
  0xe6, 0xa4, 0x74, 0xbe, 0xb1, 0xc0, 0x8a, 0xbd, 0x13, 0x3e, 0x2b, 0x3e,
  0x3f, 0x86, 0x14, 0x3e, 0x7a, 0x88, 0x86, 0xbe, 0xa2, 0x4a, 0x97, 0x3b,
  0x54, 0xe4, 0x8e, 0x3d, 0xc0, 0x8a, 0xd0, 0xbc, 0xbc, 0xc4, 0x03, 0x3d,
  0x7b, 0x11, 0xd1, 0xbd, 0xbb, 0x39, 0x19, 0x3e, 0xb9, 0x73, 0xe6, 0x3d,
  0x9d, 0x13, 0xde, 0x3c, 0x66, 0x5c, 0x7d, 0xbe, 0x84, 0xdc, 0x3d, 0xbd,
  0xfe, 0xef, 0x21, 0xbb, 0xf4, 0xa3, 0x63, 0x3d, 0x7f, 0xf1, 0x69, 0xbd,
  0x17, 0x64, 0xd8, 0xbd, 0xa5, 0x5a, 0x86, 0x3b, 0xf1, 0x5a, 0x30, 0xbe,
  0xa4, 0x90, 0xac, 0xbd, 0x7d, 0xdf, 0xe2, 0x3d, 0x49, 0x29, 0x4e, 0x3e,
  0x66, 0x44, 0x45, 0x3e, 0xb3, 0x64, 0xa4, 0xbd, 0x2b, 0x4e, 0xa6, 0x3a,
  0x57, 0x09, 0x6c, 0xbd, 0xd3, 0x9e, 0x92, 0x3e, 0x51, 0x24, 0xb2, 0x3c,
  0x84, 0x1a, 0x0d, 0x3e, 0x5f, 0xdc, 0x0a, 0x3e, 0x14, 0xa0, 0xae, 0xbd,
  0x15, 0x5e, 0xeb, 0x3d, 0xe3, 0x8d, 0x6e, 0xbd, 0xa9, 0x07, 0x2e, 0xbe,
  0xe3, 0xaa, 0x1f, 0x3e, 0x7b, 0x4b, 0xad, 0xbc, 0x3c, 0x59, 0x52, 0x3e,
  0x89, 0xd4, 0x2a, 0xbe, 0xf5, 0xdf, 0x19, 0x3e, 0x3d, 0x46, 0x87, 0x3d,
  0x72, 0x8e, 0x24, 0x3e, 0x36, 0x1f, 0x09, 0xbe, 0xdc, 0x3d, 0x27, 0x3d,
  0xfb, 0x29, 0x1b, 0xbe, 0x78, 0x16, 0x31, 0xbd, 0xac, 0x92, 0xd3, 0xbd,
  0xb7, 0x20, 0x3e, 0xbe, 0x62, 0x9a, 0x1a, 0xbe, 0x55, 0x70, 0x20, 0xbe,
  0x28, 0xec, 0x56, 0xbe, 0x42, 0xee, 0xe1, 0xbd, 0xe3, 0x4b, 0x92, 0xbd,
  0x30, 0xfd, 0xa1, 0x3d, 0xcd, 0x1c, 0xcc, 0xbd, 0x24, 0xf3, 0x07, 0x3e,
  0x29, 0x96, 0x77, 0xbd, 0x43, 0x6e, 0x9b, 0xbd, 0x3f, 0xc6, 0x23, 0xbd,
  0x14, 0x05, 0x93, 0x3d, 0x6b, 0x6a, 0x35, 0xbe, 0xc1, 0xd7, 0x63, 0xbe,
  0x3b, 0x56, 0x3c, 0xbc, 0xfc, 0x1d, 0x75, 0xbc, 0x4c, 0x3a, 0x76, 0x3c,
  0xdd, 0x6f, 0x08, 0x3e, 0x42, 0x43, 0x6b, 0x3e, 0x50, 0xc7, 0xe5, 0xbc,
  0x5e, 0xf2, 0xe8, 0xbd, 0x9b, 0x67, 0x19, 0xbe, 0xb6, 0x4f, 0xbe, 0x3d,
  0xdd, 0x0a, 0xe9, 0x3d, 0x1f, 0x38, 0x10, 0x3e, 0x06, 0x2d, 0xf8, 0x3d,
  0xf9, 0xe4, 0xe1, 0x3c, 0xa3, 0xf7, 0x1c, 0xbe, 0x04, 0x98, 0x08, 0xbe,
  0xc7, 0x6b, 0x84, 0xbe, 0x8c, 0xe0, 0x5b, 0x3d, 0x6f, 0xdb, 0x9c, 0xbc,
  0xe8, 0x00, 0x8a, 0xbd, 0x5a, 0x65, 0x53, 0x3e, 0x74, 0xdb, 0x2a, 0x3e,
  0x69, 0x4a, 0x38, 0xbd, 0xfb, 0xd7, 0xbd, 0xbd, 0xf9, 0x76, 0x08, 0xbe,
  0xe6, 0x4a, 0x8f, 0x3c, 0x2b, 0x6a, 0x95, 0xbd, 0x85, 0x63, 0xe2, 0x3d,
  0xfe, 0x2e, 0x4d, 0x3e, 0xaf, 0x94, 0xcc, 0xbd, 0x93, 0xec, 0x41, 0x3d,
  0x01, 0x3f, 0x62, 0xbd, 0xb3, 0x0d, 0x00, 0xbe, 0x2f, 0x56, 0xb5, 0x3d,
  0x88, 0xfe, 0xf5, 0x3d, 0x89, 0x32, 0x3f, 0x3d, 0xa3, 0xcb, 0x92, 0xbd,
  0x59, 0x33, 0xec, 0x3b, 0xc1, 0x44, 0x96, 0xbd, 0x07, 0x6a, 0x32, 0x3e,
  0x4f, 0x36, 0x3c, 0xbe, 0x91, 0x74, 0x84, 0xbd, 0x29, 0xd1, 0x94, 0xbd,
  0x18, 0x98, 0xf9, 0xbd, 0xb9, 0xd6, 0x24, 0xbe, 0x5c, 0x3a, 0x4a, 0xbd,
  0xf8, 0xfd, 0xb4, 0xbc, 0x17, 0xc6, 0xbf, 0x3d, 0xb2, 0x2b, 0x71, 0xbd,
  0x1d, 0xdb, 0xa3, 0x3d, 0xf0, 0xb8, 0x21, 0x3e, 0x82, 0x45, 0xa7, 0x3d,
  0x48, 0xfc, 0xb2, 0xbb, 0xd1, 0x6f, 0x21, 0x3e, 0x32, 0xcd, 0xa4, 0x3d,
  0xbb, 0xc3, 0x0b, 0xbe, 0xa5, 0xf2, 0x5e, 0x3d, 0xe1, 0x58, 0xfc, 0xbd,
  0x84, 0x70, 0x37, 0x3e, 0x26, 0x6a, 0xe8, 0xbd, 0x39, 0x14, 0x83, 0xbe,
  0x91, 0xed, 0x60, 0xbe, 0xb0, 0xed, 0xe3, 0xbc, 0xd9, 0xaf, 0x54, 0xbe,
  0xca, 0x64, 0x3d, 0xbe, 0xef, 0x35, 0xa5, 0xbd, 0x18, 0x6f, 0xe5, 0xbd,
  0xf4, 0xb7, 0x4d, 0xbe, 0x92, 0x15, 0xef, 0x3d, 0x1c, 0xc2, 0x27, 0x3e,
  0x2f, 0x9c, 0x0c, 0x3e, 0x5f, 0xe2, 0x2a, 0x3e, 0x2f, 0x23, 0x2f, 0x3d,
  0xb6, 0x54, 0x0f, 0xbc, 0xb8, 0xdc, 0xcf, 0x3c, 0xf0, 0xbd, 0xdb, 0xbd,
  0x1f, 0xeb, 0x57, 0x3e, 0x7e, 0x29, 0x13, 0xbc, 0xec, 0xd2, 0x14, 0x3e,
  0x50, 0x97, 0xd0, 0xbd, 0xdb, 0x46, 0xc1, 0x3c, 0x08, 0x9b, 0xf5, 0xbd,
  0x64, 0x43, 0xe1, 0x3d, 0x7b, 0xf0, 0xe6, 0xbd, 0xcb, 0xb9, 0x97, 0x3d,
  0x97, 0xa0, 0xd8, 0xbc, 0xc9, 0xd6, 0xf5, 0xbd, 0xff, 0x53, 0x00, 0xbd,
  0x80, 0x28, 0x97, 0x3c, 0xfe, 0x29, 0x51, 0x3d, 0x61, 0x38, 0xeb, 0x3d,
  0x40, 0xef, 0xd0, 0xbd, 0x33, 0x49, 0x94, 0x3d, 0x68, 0xa6, 0x88, 0xbc,
  0xf8, 0x7e, 0xa7, 0xbd, 0xbc, 0x43, 0x79, 0xbd, 0x88, 0x94, 0xd2, 0x3d,
  0xd6, 0xc3, 0x5a, 0xbd, 0xfb, 0x0f, 0x33, 0xbe, 0xdb, 0x89, 0x7a, 0x3d,
  0x19, 0xc5, 0xbc, 0xbd, 0x5c, 0x60, 0x8c, 0x3d, 0x95, 0x54, 0x43, 0x3e,
  0xde, 0x16, 0xca, 0x3d, 0x62, 0x14, 0x63, 0x3d, 0xee, 0x60, 0x35, 0x3c,
  0xb9, 0xc2, 0x1e, 0xbe, 0xf1, 0xbe, 0x54, 0xbd, 0x48, 0x18, 0x23, 0xbc,
  0x0b, 0xd5, 0x87, 0xbd, 0x3a, 0xf0, 0x35, 0x3e, 0xab, 0x86, 0x94, 0xbd,
  0xbc, 0x45, 0x09, 0x3e, 0x91, 0xb5, 0x96, 0x3c, 0x63, 0xfe, 0x0f, 0xbc,
  0x66, 0x02, 0xcd, 0x3d, 0x99, 0xf3, 0x1d, 0xbe, 0xa2, 0x4d, 0x0e, 0xbe,
  0x59, 0x11, 0x2b, 0xbe, 0x76, 0x91, 0xb2, 0xbd, 0x54, 0x4c, 0x06, 0x3e,
  0x3c, 0x8e, 0xf1, 0x3d, 0x95, 0xa9, 0x5e, 0xbd, 0xaa, 0x69, 0x5d, 0xbd,
  0xd3, 0xf2, 0x6e, 0xbe, 0x53, 0x10, 0xef, 0x3d, 0x54, 0x06, 0x6a, 0x3d,
  0x09, 0x65, 0xc1, 0xbc, 0x23, 0x5c, 0x2f, 0x3e, 0x3f, 0xa1, 0x06, 0x3d,
  0x9a, 0x68, 0x7f, 0xbc, 0x03, 0x5e, 0xd8, 0xbd, 0x93, 0x12, 0x89, 0x3d,
  0x59, 0x33, 0x33, 0x3e, 0xf7, 0x8d, 0x3d, 0xbd, 0x37, 0x11, 0xe6, 0x3d,
  0xc1, 0x02, 0xeb, 0x3d, 0x00, 0x0e, 0x51, 0xbe, 0x06, 0xba, 0x03, 0xbe,
  0x8c, 0x83, 0x56, 0x3e, 0x4e, 0xe8, 0x31, 0xbd, 0x93, 0x0f, 0x29, 0xbe,
  0x65, 0x0c, 0xbf, 0xbd, 0x8e, 0x35, 0x74, 0x3e, 0x82, 0x41, 0x30, 0x3d,
  0x84, 0x5c, 0xa3, 0x3d, 0xe1, 0xd0, 0x08, 0x3d, 0x56, 0x2c, 0xe5, 0xbc,
  0x4e, 0x99, 0x5c, 0x3d, 0xdf, 0xed, 0x2b, 0x3c, 0xea, 0x11, 0x7e, 0xba,
  0x50, 0xcd, 0x32, 0xbe, 0xe7, 0xcd, 0x14, 0xbc, 0x04, 0x74, 0xc1, 0xbd,
  0xc8, 0xf0, 0x1b, 0xbd, 0x92, 0xd3, 0x81, 0x3d, 0x99, 0xcb, 0x18, 0x3e,
  0x34, 0x55, 0x7a, 0x3d, 0x24, 0x23, 0x16, 0xbd, 0x38, 0x98, 0xbc, 0x3d,
  0x37, 0xe8, 0xce, 0x3c, 0x35, 0xdc, 0x27, 0xbe, 0x18, 0x9b, 0x19, 0x3d,
  0x81, 0x3a, 0x91, 0x3d, 0x1a, 0x4d, 0x0c, 0xbd, 0xcc, 0xd9, 0x6e, 0x3d,
  0x3c, 0x30, 0x5d, 0x3d, 0xc4, 0xc4, 0x28, 0xbe, 0x1e, 0x8d, 0x6c, 0xbd,
  0x04, 0xae, 0x5f, 0xba, 0xdf, 0xe1, 0x6c, 0x3e, 0x31, 0xef, 0xc4, 0xbd,
  0xc1, 0xc7, 0x75, 0x3d, 0xf4, 0x2e, 0xb7, 0xbd, 0x78, 0x13, 0x51, 0xbd,
  0x19, 0x2d, 0xa8, 0x3b, 0xed, 0x57, 0x1e, 0x3e, 0x04, 0xab, 0x19, 0xbe,
  0xaf, 0x15, 0x38, 0xbe, 0xb2, 0x95, 0x38, 0x3e, 0x36, 0x40, 0xb8, 0x3d,
  0x42, 0xdd, 0x32, 0xbe, 0xf9, 0x06, 0xb9, 0xbc, 0x5f, 0x4a, 0x9f, 0x3d,
  0x42, 0xf9, 0x53, 0x3d, 0x35, 0xf6, 0x22, 0xbd, 0xe2, 0x85, 0xc7, 0x3d,
  0xce, 0x3f, 0xfe, 0xbd, 0x43, 0x39, 0x48, 0xbe, 0xbc, 0x65, 0x07, 0x3e,
  0xff, 0x68, 0xd0, 0x3c, 0xd8, 0x04, 0x0d, 0xbe, 0x6d, 0x73, 0x26, 0x3e,
  0x7f, 0x90, 0x7c, 0xbc, 0x43, 0x01, 0x74, 0xbd, 0x0e, 0x85, 0x64, 0xbe,
  0xc7, 0x6d, 0x2a, 0x3e, 0xb6, 0x3e, 0xf9, 0xbc, 0xd6, 0xb7, 0xc4, 0x3c,
  0xc6, 0x83, 0x36, 0xbd, 0x20, 0x64, 0x01, 0xbd, 0x0f, 0x5b, 0x30, 0x3e,
  0xd4, 0xdc, 0x1a, 0x3e, 0x1d, 0x7b, 0x32, 0x3e, 0xdd, 0xb4, 0x30, 0x3e,
  0x4c, 0x2f, 0xb6, 0xbd, 0xa2, 0x78, 0x42, 0x3e, 0xe9, 0x8a, 0xbc, 0x3d,
  0xf9, 0x4c, 0xcc, 0xbd, 0xf4, 0x46, 0xa1, 0xbd, 0xaf, 0x3f, 0x12, 0xbe,
  0x71, 0xed, 0x33, 0xbe, 0xa3, 0x8a, 0x80, 0xbe, 0x55, 0x81, 0xdc, 0xbd,
  0x6e, 0x3d, 0x53, 0xbe, 0x47, 0xc5, 0x2a, 0x3d, 0xbf, 0x7a, 0x80, 0x3d,
  0x0e, 0xd6, 0xb3, 0x3d, 0xf0, 0x10, 0x5e, 0xba, 0xad, 0xb9, 0x3b, 0x3e,
  0x52, 0xb6, 0x11, 0x3e, 0xd7, 0x7f, 0xc3, 0x3d, 0xe3, 0x6f, 0xea, 0xbd,
  0x8c, 0xd6, 0x4e, 0xbd, 0xea, 0x1b, 0x83, 0x3e, 0xaa, 0x78, 0xdf, 0x3c,
  0xe4, 0xed, 0xe9, 0xbd, 0x81, 0x47, 0x7e, 0x3c, 0x61, 0xd1, 0x51, 0xbd,
  0x39, 0xa4, 0xb3, 0xbc, 0xb2, 0x78, 0x33, 0xbe, 0x5a, 0x98, 0xd4, 0xbd,
  0xd1, 0x1d, 0x90, 0xbd, 0x76, 0xd0, 0x3f, 0xbe, 0x2d, 0x49, 0xc4, 0x3b,
  0xac, 0x6d, 0x89, 0xbc, 0xaa, 0xea, 0x13, 0x3e, 0x12, 0x3a, 0x53, 0x3d,
  0x10, 0xce, 0x6b, 0x3e, 0x50, 0x9f, 0x2a, 0x3d, 0x64, 0x24, 0xa3, 0x3d,
  0xdf, 0x7c, 0x45, 0x3d, 0x16, 0x06, 0x9c, 0xbc, 0x46, 0xc0, 0x21, 0xbe,
  0x6c, 0x68, 0x56, 0xbd, 0x76, 0x0a, 0xc7, 0x3d, 0x1c, 0x6a, 0xfc, 0x3c,
  0x89, 0x7d, 0x78, 0x3d, 0x58, 0x1d, 0x28, 0x3e, 0x5f, 0xc1, 0x6b, 0x3d,
  0x73, 0x9d, 0x06, 0x3e, 0xdf, 0x36, 0x54, 0xbe, 0xb4, 0x7b, 0x8c, 0xbe,
  0xda, 0xb5, 0xb7, 0x3d, 0xb6, 0xdb, 0x40, 0x3e, 0x67, 0x79, 0x56, 0x3e,
  0xac, 0x75, 0x6f, 0x3e, 0x6d, 0x61, 0x37, 0x3e, 0xe9, 0xc0, 0x10, 0x3e,
  0x90, 0xff, 0x89, 0xbd, 0x5a, 0x41, 0x20, 0x3d, 0x9c, 0x45, 0x46, 0xbd,
  0xec, 0xc2, 0x1c, 0xbe, 0xc1, 0xc7, 0x03, 0x3e, 0x77, 0x6e, 0xb4, 0xbd,
  0x5e, 0xbe, 0x5e, 0x3e, 0xf5, 0x42, 0x1b, 0xbe, 0xe0, 0x9d, 0x0f, 0xbe,
  0x38, 0x13, 0x2a, 0xbe, 0x68, 0x26, 0x4c, 0x3d, 0xb5, 0xcd, 0x3f, 0xbd,
  0xaf, 0xa5, 0x0a, 0x3e, 0xfd, 0x31, 0x1c, 0xbd, 0xc3, 0x43, 0xc8, 0xba,
  0xce, 0x90, 0x61, 0x3d, 0xaf, 0xd9, 0x6c, 0xbc, 0x6a, 0xf3, 0x07, 0x3e,
  0x6b, 0x64, 0xe3, 0x3d, 0x8e, 0xdd, 0x45, 0x3e, 0xc2, 0xba, 0x5b, 0x3d,
  0x54, 0x58, 0xff, 0xbd, 0xe0, 0x90, 0x66, 0xbe, 0x83, 0xcd, 0xfd, 0x3b,
  0xce, 0xe4, 0xe8, 0x3d, 0x8d, 0xbf, 0x17, 0xbe, 0xd9, 0x33, 0x25, 0x3e,
  0xa0, 0x3f, 0xf0, 0xbc, 0x0c, 0xfd, 0xed, 0x3d, 0x4e, 0xc4, 0xa2, 0xbb,
  0x35, 0x43, 0x12, 0x3d, 0x21, 0x9a, 0xd7, 0xbd, 0xaf, 0xa2, 0x2f, 0xbe,
  0x6c, 0x25, 0x11, 0xbe, 0x69, 0x0b, 0x06, 0xbe, 0xff, 0xa3, 0x99, 0x3d,
  0x99, 0x00, 0x8f, 0xbd, 0x6e, 0x9d, 0x74, 0x3d, 0xe5, 0xd3, 0xa9, 0x3d,
  0xcc, 0x7d, 0x8d, 0x3d, 0xfd, 0xea, 0x47, 0x3c, 0x66, 0xbf, 0x7f, 0xbd,
  0x49, 0x9d, 0x85, 0xbd, 0x64, 0xa8, 0x87, 0x3e, 0x1c, 0x15, 0x5e, 0x3d,
  0x8a, 0xa1, 0x11, 0xbe, 0x06, 0x20, 0x49, 0xbe, 0xea, 0xa9, 0x53, 0xbd,
  0xf6, 0xda, 0xa7, 0xbd, 0xee, 0x0f, 0x9c, 0x3d, 0x95, 0x56, 0x91, 0x3d,
  0xba, 0x3c, 0x96, 0xbd, 0x1a, 0xd9, 0xe5, 0xbd, 0x36, 0x9a, 0xd4, 0x3c,
  0x1c, 0xaf, 0x1d, 0xbe, 0xea, 0x85, 0xf1, 0x3c, 0x7f, 0x67, 0x85, 0x3d,
  0xeb, 0xe5, 0x07, 0xbd, 0xed, 0x71, 0x1c, 0x3e, 0x04, 0x71, 0x1b, 0x3d,
  0x76, 0xd6, 0x26, 0xbe, 0xd0, 0x61, 0xd1, 0xbb, 0xd3, 0x89, 0xbe, 0xbd,
  0x09, 0xc2, 0x6a, 0xbd, 0x9e, 0x78, 0x27, 0xbe, 0x70, 0xf9, 0x1b, 0xbe,
  0x08, 0x9a, 0xe5, 0x3d, 0x18, 0x1f, 0x1c, 0x3e, 0x0a, 0x51, 0x8e, 0x3c,
  0xc4, 0xac, 0xcb, 0x3d, 0x24, 0x3b, 0xb1, 0xbc, 0x6c, 0x9b, 0x5e, 0x3d,
  0x2b, 0xcf, 0x0c, 0xbe, 0x21, 0x7a, 0x05, 0xbe, 0xf2, 0x01, 0x68, 0xbc,
  0x86, 0x53, 0x72, 0x3d, 0x0b, 0x35, 0xbc, 0x3d, 0xb5, 0xbf, 0x5a, 0x3b,
  0xec, 0x6c, 0x10, 0x3d, 0x5e, 0x05, 0x9a, 0xbd, 0x39, 0xd0, 0xb9, 0xbd,
  0x11, 0xec, 0x1a, 0x3e, 0x64, 0xfa, 0x1b, 0x3e, 0x4a, 0xe6, 0x86, 0xbd,
  0x44, 0x2d, 0x38, 0xbc, 0x2c, 0x82, 0x35, 0xbe, 0xab, 0x2c, 0x83, 0x3d,
  0xb8, 0x47, 0xe0, 0xbd, 0x80, 0xd3, 0x3d, 0x3d, 0xcb, 0x71, 0x03, 0x3e,
  0x01, 0x20, 0x0a, 0xbe, 0xc1, 0xbf, 0x20, 0xbe, 0x23, 0x1d, 0xa4, 0xbd,
  0xc7, 0x3a, 0xae, 0xbd, 0xa4, 0x13, 0x04, 0xbe, 0x16, 0xa2, 0x76, 0x3c,
  0x17, 0x7b, 0xe1, 0xbd, 0x28, 0x60, 0xb5, 0x3d, 0xa4, 0x15, 0x42, 0x3e,
  0xaf, 0x72, 0xb9, 0xbd, 0x04, 0x03, 0x28, 0x3d, 0x89, 0xa9, 0xa0, 0xbd,
  0x33, 0xc9, 0xf9, 0xbd, 0x50, 0x9c, 0xe4, 0xbd, 0x0f, 0x2b, 0xfc, 0x3a,
  0xf1, 0x2f, 0xe7, 0xbd, 0x1f, 0x85, 0xef, 0x3c, 0x7b, 0xb1, 0x20, 0x3d,
  0x38, 0x4b, 0xd5, 0x3b, 0x7a, 0x76, 0x24, 0x3e, 0xc8, 0xd2, 0xdd, 0xbd,
  0x94, 0x9a, 0x1f, 0x3e, 0x13, 0x06, 0x12, 0xbd, 0x02, 0xa4, 0xc0, 0xbd,
  0x14, 0x0e, 0xa9, 0xbc, 0xcc, 0xb9, 0xdc, 0xbc, 0x7d, 0x31, 0xbc, 0x3d,
  0x92, 0x73, 0xf5, 0x3d, 0x50, 0x11, 0x0b, 0x3d, 0xb2, 0x6c, 0x19, 0xbe,
  0xb4, 0x98, 0xcd, 0x3d, 0x71, 0xef, 0x3d, 0xbd, 0x4f, 0x32, 0xf2, 0xbd,
  0xcf, 0xe7, 0x86, 0xbd, 0xb3, 0xe0, 0x9f, 0xbc, 0xc2, 0xa3, 0xdb, 0x3d,
  0x6c, 0x16, 0x0d, 0xbe, 0x23, 0x8d, 0x49, 0x3e, 0xfc, 0x45, 0x32, 0xbe,
  0x5d, 0x44, 0x1b, 0xbe, 0xe2, 0x51, 0x5a, 0x3d, 0x5d, 0xbc, 0x3d, 0xbd,
  0xa8, 0x1f, 0x2d, 0xbe, 0xac, 0x00, 0xf4, 0x3d, 0xd1, 0xb6, 0x60, 0xbe,
  0x54, 0x80, 0x45, 0x3c, 0x6d, 0x62, 0x2c, 0xbd, 0x5d, 0x55, 0x43, 0x3e,
  0x19, 0x4e, 0x1d, 0x3e, 0xc3, 0xd1, 0xc2, 0x3d, 0xe0, 0xd1, 0xbe, 0x3c,
  0x41, 0x6d, 0x5a, 0x3e, 0xff, 0x65, 0x42, 0xbd, 0xff, 0xa3, 0x0c, 0x3b,
  0xe9, 0x7a, 0x67, 0xbd, 0x30, 0x1f, 0xb5, 0x3c, 0x9f, 0x7e, 0x25, 0xbe,
  0x31, 0xb7, 0x95, 0x3c, 0xd5, 0x6e, 0x25, 0xbe, 0xab, 0x58, 0x29, 0xbd,
  0x41, 0x00, 0x7c, 0xbd, 0x1b, 0x12, 0xb9, 0xbd, 0xbe, 0x92, 0xfc, 0xbd,
  0x63, 0x2a, 0x9d, 0x3d, 0x1f, 0x95, 0xed, 0xbd, 0x9d, 0x76, 0x46, 0xb8,
  0x23, 0x3b, 0x74, 0x3d, 0xdc, 0x1b, 0x22, 0xbe, 0x42, 0x34, 0x95, 0xbd,
  0x90, 0x88, 0x38, 0x3b, 0xb6, 0xc6, 0x43, 0xbd, 0xba, 0xdd, 0x65, 0x3d,
  0xe0, 0x51, 0x20, 0xbe, 0x2f, 0x3d, 0x63, 0xbb, 0x36, 0x98, 0x4e, 0x3c,
  0x98, 0xd1, 0x05, 0x3e, 0x85, 0x7a, 0xd8, 0xbd, 0x3b, 0xf7, 0xa2, 0x3d,
  0xd8, 0xb3, 0x2c, 0x3c, 0x22, 0x3b, 0xa6, 0x3d, 0xf5, 0xe5, 0x97, 0xbd,
  0xaa, 0x9c, 0x3e, 0xbd, 0x86, 0x8a, 0x37, 0xbe, 0xd4, 0x84, 0xc2, 0x3d,
  0x19, 0xd9, 0x54, 0xbc, 0x0c, 0x5e, 0x57, 0xbd, 0xc7, 0x7e, 0xda, 0xbd,
  0x5d, 0x31, 0x08, 0x3d, 0xd7, 0xe6, 0x3d, 0x3d, 0x3a, 0x5c, 0x89, 0x3b,
  0x0e, 0x4c, 0x2e, 0xbd, 0x29, 0xa1, 0x8f, 0xbd, 0x7c, 0x1c, 0x6d, 0xbe,
  0x73, 0xe7, 0xe8, 0xbd, 0xd1, 0x8f, 0xdc, 0x3c, 0x03, 0x9e, 0xe5, 0x3d,
  0x5f, 0xe3, 0xec, 0x3c, 0x49, 0x61, 0x7f, 0xbd, 0xad, 0xf6, 0xe5, 0x3d,
  0xda, 0x59, 0x5e, 0x3e, 0x52, 0x1c, 0x5b, 0x3d, 0xb7, 0x2f, 0xa4, 0xbd,
  0x10, 0x8b, 0xe8, 0x3d, 0x82, 0x2c, 0x0b, 0xbd, 0x39, 0x68, 0xa4, 0xbd,
  0x70, 0x5b, 0x1b, 0x3c, 0x9b, 0xe4, 0x07, 0x3e, 0x8d, 0x7a, 0x82, 0xbd,
  0x3a, 0xe5, 0x1c, 0x3e, 0x6a, 0xb8, 0x64, 0x3d, 0x6c, 0x11, 0x54, 0xbc,
  0xf8, 0x48, 0x0a, 0x3e, 0x5d, 0xed, 0xf8, 0xbc, 0x77, 0xfe, 0xb0, 0x3d,
  0x3f, 0x9c, 0xd0, 0x3d, 0x9a, 0x4d, 0xc0, 0xbd, 0xaf, 0x08, 0x8b, 0xbd,
  0x77, 0x3a, 0x02, 0x3e, 0xfa, 0xc7, 0xcb, 0xbc, 0x44, 0x62, 0x2d, 0xbd,
  0x5e, 0xac, 0xe0, 0x3d, 0x3d, 0xb8, 0x82, 0x3c, 0x95, 0xa3, 0xc5, 0xbc,
  0x57, 0x04, 0x54, 0xbc, 0x18, 0xd2, 0x2b, 0xbd, 0x2b, 0x6f, 0x22, 0x3e,
  0x17, 0x1c, 0xdb, 0xbd, 0x44, 0xb5, 0x3b, 0x3d, 0xb3, 0x11, 0xd9, 0xbd,
  0xd0, 0x8b, 0x03, 0x3e, 0xb0, 0x53, 0xc5, 0x3c, 0x6d, 0xd1, 0x0d, 0x3d,
  0x06, 0x76, 0xbd, 0xbc, 0xee, 0x2f, 0xfc, 0xbd, 0x1f, 0x98, 0xda, 0x3c,
  0x9a, 0x97, 0x97, 0xbc, 0x46, 0x7a, 0xdb, 0xbd, 0x1d, 0x2a, 0x8b, 0x3d,
  0xc3, 0x9e, 0xfd, 0x3d, 0xfd, 0xf4, 0x8f, 0xbb, 0x37, 0x6e, 0xb3, 0xbd,
  0xf7, 0xef, 0xce, 0x3d, 0x57, 0xe7, 0x2e, 0x3e, 0x80, 0xc1, 0xb1, 0xbd,
  0xe4, 0x9e, 0x55, 0xbe, 0x61, 0xb3, 0xe3, 0x3d, 0xf9, 0xf6, 0x51, 0x3d,
  0x8c, 0xad, 0x21, 0x3e, 0xfb, 0x84, 0x4c, 0xbe, 0x4e, 0x2d, 0xb0, 0x3d,
  0x5b, 0x55, 0x04, 0x3e, 0x73, 0x93, 0xbc, 0xbd, 0x7b, 0x08, 0x85, 0xbd,
  0x96, 0x2b, 0x58, 0xbe, 0x67, 0xb8, 0xa6, 0x3d, 0x3a, 0x5b, 0x5b, 0xbd,
  0x0a, 0x46, 0xe6, 0x3d, 0x8b, 0x92, 0x31, 0xbd, 0xbd, 0x59, 0x04, 0xbe,
  0xb2, 0x99, 0xcf, 0x3d, 0x52, 0xd6, 0x0e, 0xbe, 0x89, 0xab, 0x2d, 0xbe,
  0x65, 0xfb, 0x30, 0xbe, 0x24, 0xdf, 0xe5, 0x3d, 0x68, 0x67, 0x82, 0xbe,
  0x92, 0x66, 0xd2, 0x3d, 0x8e, 0xe7, 0x91, 0xbd, 0x3c, 0xef, 0x34, 0x3e,
  0xed, 0x1b, 0xba, 0x3d, 0x2e, 0xc8, 0x5a, 0xbd, 0x94, 0x72, 0x89, 0x3d,
  0x73, 0xd8, 0xc7, 0xbc, 0xb9, 0x68, 0x45, 0x3e, 0xd1, 0xd1, 0xe6, 0x3d,
  0x07, 0xa9, 0x1e, 0x3e, 0x87, 0x22, 0xe4, 0xbc, 0x54, 0x5f, 0xcc, 0x3d,
  0xc9, 0x58, 0x07, 0x3e, 0xb5, 0xef, 0x05, 0x3d, 0xe5, 0xab, 0xdd, 0xbd,
  0xdc, 0xf7, 0x08, 0xbd, 0xe7, 0xc7, 0x27, 0xbd, 0xe8, 0x5f, 0x73, 0x3e,
  0x30, 0xa5, 0x07, 0x3e, 0x88, 0xbe, 0x23, 0x3e, 0x09, 0x07, 0x9c, 0x3d,
  0x3a, 0x09, 0xb7, 0xbd, 0x03, 0xb9, 0x5c, 0x3c, 0x4b, 0x9c, 0xbb, 0xbd,
  0xe9, 0x84, 0x8a, 0x3b, 0x55, 0x21, 0x16, 0xbe, 0x8b, 0xc8, 0x9b, 0x3c,
  0xc5, 0xdf, 0x80, 0x3d, 0x6b, 0xd8, 0xbf, 0x3c, 0xef, 0xd6, 0x08, 0x3e,
  0xad, 0x52, 0x83, 0x3c, 0x1e, 0x7c, 0x40, 0xbe, 0xd2, 0x34, 0xe7, 0x3d,
  0x42, 0x72, 0x9e, 0x3d, 0xe5, 0x09, 0xa6, 0x3d, 0xc3, 0xbb, 0x7e, 0x3d,
  0x51, 0xf9, 0xb8, 0xbd, 0x98, 0xc7, 0x81, 0x3e, 0xeb, 0x68, 0xac, 0x3d,
  0x3e, 0x5f, 0xf5, 0xbd, 0xb0, 0x38, 0x01, 0xbe, 0x73, 0xa4, 0x1e, 0xbe,
  0xfb, 0xd2, 0x30, 0xbd, 0xa1, 0x19, 0xe3, 0x3b, 0x1a, 0x3f, 0x81, 0x3d,
  0x82, 0xb1, 0x36, 0xbd, 0x60, 0x34, 0x90, 0x3d, 0xc6, 0x8a, 0x1b, 0x3e,
  0x01, 0x4c, 0x01, 0x3e, 0x2d, 0xdb, 0x0d, 0xbe, 0x40, 0x08, 0x98, 0x3d,
  0x72, 0x0f, 0x3d, 0x3e, 0xde, 0x53, 0xb2, 0xbd, 0xd3, 0xc5, 0x52, 0xbd,
  0x78, 0x27, 0x07, 0x3d, 0x6f, 0x77, 0xe5, 0xbd, 0xf4, 0x3f, 0x18, 0xbe,
  0xd7, 0x63, 0x05, 0x3d, 0x34, 0xc8, 0x55, 0x3d, 0x35, 0x17, 0xf2, 0x3d,
  0xc0, 0x6a, 0x8c, 0x3d, 0xbb, 0xe0, 0x35, 0x3e, 0x49, 0xff, 0x1e, 0xbd,
  0xe8, 0x23, 0x73, 0xbd, 0xc1, 0x7f, 0x2a, 0xbe, 0xe1, 0x04, 0x29, 0xbe,
  0x6a, 0xb6, 0xe0, 0xbb, 0x06, 0xfd, 0xc1, 0x3d, 0x9d, 0x8c, 0x09, 0xbe,
  0xf6, 0xa5, 0xd9, 0x3d, 0x48, 0xfd, 0xbc, 0x3d, 0x93, 0x30, 0x15, 0xbe,
  0xe1, 0xe7, 0xc0, 0x3d, 0xfe, 0x71, 0xf7, 0x3d, 0x45, 0xd9, 0x9c, 0x3d,
  0x1b, 0x43, 0x66, 0x3b, 0xfb, 0x31, 0x98, 0xbd, 0x66, 0x36, 0xd3, 0x3d,
  0xfa, 0x55, 0x11, 0x3d, 0x37, 0x0d, 0x19, 0x3e, 0xe9, 0x5c, 0x02, 0x3e,
  0x16, 0xeb, 0xb3, 0x3d, 0xc9, 0xb3, 0xc2, 0xbb, 0x7e, 0xf9, 0xcf, 0x3d,
  0x90, 0x43, 0x85, 0x3c, 0xea, 0xce, 0x86, 0x3d, 0xf6, 0x9a, 0x13, 0x3e,
  0x28, 0x91, 0x0e, 0x3e, 0x85, 0x58, 0xc0, 0x3c, 0x07, 0xba, 0x17, 0x3e,
  0x16, 0xd3, 0x26, 0x3e, 0x8d, 0x5a, 0x2e, 0xbe, 0xaa, 0xe8, 0x6d, 0xbd,
  0xe1, 0xcc, 0x61, 0x3c, 0x0e, 0xb0, 0x07, 0x3d, 0xd0, 0x40, 0xc1, 0x3d,
  0xe8, 0x80, 0xf0, 0x3d, 0xab, 0x9a, 0x42, 0xbd, 0xda, 0xb3, 0x9f, 0xbc,
  0xc3, 0x89, 0x14, 0xbe, 0x8f, 0xc4, 0xfe, 0xbc, 0x0d, 0xab, 0xfa, 0xbc,
  0x05, 0xfe, 0xce, 0xbd, 0x5f, 0xd1, 0xbe, 0xbc, 0x21, 0xbb, 0xe9, 0x3d,
  0x22, 0xe3, 0x0d, 0xbe, 0x20, 0x75, 0x17, 0xbc, 0x93, 0xe5, 0xc4, 0x3c,
  0x51, 0x91, 0x0b, 0x3e, 0xcb, 0xb2, 0xa0, 0x3d, 0x92, 0xd0, 0xf7, 0xbd,
  0x5e, 0xc6, 0x5b, 0x3e, 0x0c, 0x0b, 0x01, 0xbe, 0x19, 0xaa, 0x89, 0x3d,
  0x80, 0x52, 0x66, 0xbc, 0x75, 0x6b, 0x60, 0x3d, 0x4e, 0xcc, 0xe5, 0x3d,
  0x9b, 0x5b, 0xfb, 0xbd, 0xd3, 0xb5, 0xfe, 0x3d, 0x7b, 0x04, 0xb3, 0x3d,
  0x99, 0x60, 0xd6, 0xbd, 0x59, 0x9c, 0x57, 0x3e, 0x87, 0x56, 0xe8, 0xbc,
  0xcd, 0xa5, 0x24, 0xbe, 0x58, 0x73, 0x46, 0x3e, 0x7b, 0x71, 0x44, 0xbe,
  0x1b, 0xc8, 0xdd, 0x3d, 0xa5, 0x56, 0xed, 0xbd, 0x87, 0x94, 0x73, 0x3d,
  0x17, 0xbf, 0x02, 0xbe, 0x54, 0xbe, 0xda, 0x3d, 0x37, 0x78, 0xf2, 0xbd,
  0x08, 0xfa, 0x17, 0x3c, 0xd5, 0x91, 0x81, 0xbd, 0x20, 0xd8, 0x88, 0xbd,
  0x27, 0x5a, 0x20, 0x3e, 0x82, 0x52, 0xec, 0xbd, 0x3f, 0x37, 0xbc, 0x3d,
  0x61, 0x08, 0xf6, 0xbd, 0xf3, 0xbf, 0x40, 0x3e, 0xe6, 0xf9, 0xcd, 0x3d,
  0x4c, 0x4e, 0x6d, 0x3e, 0xce, 0xe0, 0xe6, 0x3c, 0xab, 0x06, 0x61, 0xbe,
  0x85, 0x2f, 0x75, 0x3c, 0xa1, 0xaf, 0x8d, 0xbe, 0xdf, 0x35, 0xb1, 0xbd,
  0x82, 0xaa, 0x53, 0x3e, 0xa3, 0xe5, 0x1d, 0x3d, 0xba, 0xab, 0x54, 0xbe,
  0xcf, 0x82, 0x25, 0x3d, 0xa3, 0x9e, 0xca, 0xbd, 0x52, 0x1a, 0xf8, 0x3d,
  0x63, 0x39, 0x80, 0x3e, 0x28, 0xea, 0x54, 0x3e, 0x2a, 0xf2, 0xe4, 0x3d,
  0xd2, 0x24, 0xb0, 0xbd, 0x87, 0x3b, 0x71, 0xbd, 0x7a, 0x90, 0x06, 0xbe,
  0xe8, 0x5e, 0xe5, 0x3c, 0xce, 0x62, 0x09, 0x3e, 0x1e, 0x1c, 0x0e, 0x3e,
  0x5c, 0x88, 0x39, 0x3d, 0x14, 0xd7, 0xf3, 0xbd, 0x87, 0x2f, 0x9e, 0x3d,
  0xd4, 0x04, 0x71, 0x3e, 0x77, 0x19, 0x13, 0x3e, 0x54, 0x70, 0x41, 0x3e,
  0x50, 0xb7, 0x49, 0xbd, 0xdb, 0xa8, 0x8a, 0xbd, 0x5a, 0xbd, 0xb7, 0xbd,
  0xf1, 0x85, 0xc5, 0x3b, 0xad, 0x69, 0x9c, 0x3c, 0x9d, 0x20, 0x1f, 0x3e,
  0x71, 0x0b, 0x04, 0x3e, 0x84, 0xf4, 0x87, 0x3d, 0xd9, 0xc0, 0xa7, 0xbd,
  0x32, 0xd7, 0xa9, 0xbd, 0x51, 0x16, 0x9e, 0xba, 0xae, 0x8c, 0x7f, 0x3e,
  0x2c, 0xbb, 0x95, 0xbd, 0x4f, 0x98, 0xec, 0xbc, 0x27, 0x7f, 0x85, 0xbe,
  0xca, 0x77, 0xa3, 0x3d, 0x33, 0x93, 0xce, 0x3d, 0xbd, 0x77, 0x8e, 0x3d,
  0x4f, 0x0f, 0x26, 0x3e, 0x80, 0xd4, 0x38, 0xbd, 0x7b, 0x97, 0x95, 0xbd,
  0x39, 0x0d, 0x97, 0xbd, 0x6f, 0xa7, 0x83, 0xbc, 0x93, 0xc5, 0x3c, 0x3e,
  0x07, 0x44, 0x83, 0x3d, 0xa2, 0xae, 0x12, 0xbe, 0xb7, 0xde, 0x88, 0x3d,
  0x8a, 0x35, 0x51, 0xbe, 0xe1, 0xd7, 0x16, 0x3e, 0xed, 0x69, 0xf8, 0x3d,
  0x6d, 0x57, 0x89, 0xbc, 0xd7, 0x98, 0xcf, 0x3c, 0x44, 0x60, 0x98, 0x3d,
  0x91, 0x0b, 0xd9, 0xbd, 0xbc, 0x8f, 0x8e, 0x3b, 0x9f, 0x28, 0x8e, 0x3d,
  0x1c, 0x95, 0x32, 0x3d, 0xb5, 0x6d, 0xa0, 0xbd, 0x23, 0x29, 0x0a, 0x3e,
  0x26, 0xd1, 0x38, 0xbe, 0x87, 0xe0, 0x22, 0xbe, 0x57, 0x3d, 0xe5, 0x3d,
  0x27, 0xb8, 0xfb, 0xbd, 0xa3, 0xb4, 0x10, 0xbe, 0x88, 0xc5, 0xc2, 0xbc,
  0xbc, 0x48, 0x4b, 0x3e, 0xe1, 0x45, 0x52, 0x3e, 0x55, 0xae, 0x3d, 0x3e,
  0x7e, 0xa7, 0xca, 0xbd, 0xc8, 0x2d, 0xc1, 0xbd, 0x06, 0x13, 0x70, 0xbd,
  0x55, 0x1c, 0xc3, 0xbd, 0x25, 0x23, 0x41, 0xbe, 0xe0, 0xe1, 0x3e, 0xbe,
  0x4d, 0x84, 0xde, 0xbd, 0x42, 0x0e, 0x1f, 0x3b, 0xce, 0xe8, 0xf4, 0xbd,
  0x6b, 0xc4, 0x6f, 0xbd, 0xa2, 0x95, 0x57, 0xbd, 0x7f, 0xc9, 0x08, 0xbe,
  0x52, 0xef, 0x1e, 0x3e, 0x88, 0x3d, 0x75, 0x3d, 0xa2, 0xaf, 0x43, 0xbe,
  0xb9, 0xc9, 0x50, 0x3d, 0xe7, 0x41, 0xd5, 0x3d, 0x6d, 0x4f, 0x45, 0x3d,
  0xd8, 0x62, 0x9c, 0xbd, 0x39, 0x4d, 0x8d, 0x3b, 0x60, 0x2e, 0x9b, 0x3c,
  0x9a, 0x31, 0x40, 0x3d, 0xe0, 0x68, 0x0f, 0x3e, 0x2d, 0xfa, 0x16, 0xbe,
  0x3f, 0x01, 0x29, 0xbe, 0x60, 0x92, 0xa4, 0xbc, 0x0b, 0x80, 0x6c, 0x3c,
  0xbf, 0x48, 0x12, 0xbd, 0xd6, 0x4b, 0x5a, 0x3d, 0xf8, 0x4c, 0x41, 0xbe,
  0xba, 0x8f, 0x52, 0x3d, 0x78, 0xfa, 0x43, 0x3b, 0x72, 0xe5, 0x14, 0x3e,
  0x79, 0xcd, 0x24, 0x3d, 0x16, 0x2d, 0xe8, 0x3d, 0x18, 0x2d, 0x25, 0x3e,
  0x2a, 0x61, 0x5b, 0x3d, 0x31, 0xda, 0x61, 0x3d, 0x44, 0x91, 0xe5, 0xbd,
  0xed, 0x97, 0x39, 0xbe, 0x71, 0x9e, 0x51, 0xbe, 0x59, 0xfc, 0x8d, 0xbd,
  0xf8, 0x8d, 0xd2, 0xbc, 0x05, 0xe2, 0x3b, 0x3e, 0xbb, 0x50, 0x1f, 0xbb,
  0x4b, 0x15, 0xf4, 0x3d, 0x24, 0x4b, 0xe9, 0x3d, 0x31, 0xd4, 0x24, 0x3e,
  0x33, 0x35, 0xf6, 0xbd, 0x5c, 0x5c, 0x06, 0x3e, 0xc5, 0x3b, 0x74, 0xbe,
  0x67, 0x84, 0x06, 0x3e, 0x68, 0xf9, 0xba, 0x3d, 0x09, 0x1e, 0x0c, 0x3e,
  0xdf, 0xc0, 0xa3, 0x3d, 0x10, 0x5d, 0x03, 0xbe, 0xe5, 0xe0, 0x55, 0xbd,
  0xea, 0xa8, 0xaa, 0xbd, 0xa0, 0x76, 0x72, 0x3d, 0x38, 0xe1, 0x90, 0x3d,
  0x5c, 0xae, 0xb1, 0xbd, 0x3c, 0x47, 0x30, 0xbd, 0x11, 0x1f, 0x57, 0x3c,
  0x0c, 0xee, 0x85, 0x3d, 0xbf, 0xf5, 0xa6, 0xbd, 0xf0, 0xc4, 0x90, 0x3d,
  0x47, 0xee, 0xf8, 0x3d, 0x4a, 0x78, 0x80, 0xbe, 0x3f, 0xed, 0x14, 0x3e,
  0xd7, 0xb6, 0x04, 0xbe, 0x8e, 0xb8, 0x96, 0xbd, 0x25, 0xad, 0x0b, 0xbe,
  0x37, 0x6a, 0xb7, 0xbd, 0xc6, 0x6b, 0x68, 0xbd, 0x3e, 0x38, 0xf5, 0xbc,
  0x8f, 0x2e, 0x1f, 0xbe, 0x3b, 0x77, 0x2a, 0xbe, 0x56, 0xfa, 0x87, 0x3c,
  0x08, 0xcb, 0xc4, 0xbc, 0xc7, 0x8a, 0xc3, 0x3d, 0xce, 0xc3, 0x91, 0xbd,
  0x26, 0x03, 0x7f, 0x3d, 0x7a, 0xe8, 0x25, 0x3e, 0xd3, 0x76, 0xcf, 0xbb,
  0xcc, 0x9c, 0x1e, 0x3e, 0x6d, 0x9d, 0xcc, 0xbb, 0xd8, 0xbd, 0x07, 0x3e,
  0xb0, 0x16, 0x68, 0x3d, 0x4a, 0x64, 0x69, 0x3e, 0x69, 0x8c, 0x4d, 0x3d,
  0x42, 0x04, 0xaa, 0xbc, 0x24, 0x87, 0xec, 0x3d, 0x51, 0xe5, 0x5d, 0x3e,
  0xc5, 0x74, 0x38, 0xbe, 0x05, 0x23, 0x77, 0x3e, 0x67, 0x32, 0x1f, 0x3e,
  0xc1, 0x32, 0xb2, 0x3d, 0x4c, 0x29, 0xcc, 0xbd, 0x59, 0x5d, 0x1d, 0x3e,
  0x50, 0x7f, 0x37, 0xbe, 0xf3, 0xf2, 0x3d, 0x3e, 0x44, 0xe0, 0x5f, 0xbd,
  0x76, 0xc7, 0x14, 0x3d, 0x86, 0x83, 0xf7, 0x3c, 0x03, 0x49, 0xd1, 0xbd,
  0x2e, 0xc8, 0x6c, 0xbe, 0x80, 0x8d, 0x08, 0x3d, 0x07, 0xe6, 0x0b, 0xbe,
  0x3d, 0xbc, 0xe3, 0x3d, 0x0b, 0x0d, 0xc4, 0x3d, 0xfb, 0xad, 0x31, 0xbe,
  0x3d, 0xe8, 0x4e, 0xbd, 0x06, 0xcf, 0x0e, 0xbe, 0xd5, 0xf8, 0xee, 0x3d,
  0xb4, 0xe6, 0xc4, 0x3d, 0x50, 0x77, 0x15, 0x3e, 0x64, 0xd9, 0x13, 0x3b,
  0x29, 0x13, 0xf3, 0xba, 0x3f, 0x64, 0x1b, 0x3e, 0xdc, 0xe7, 0x49, 0x3d,
  0x25, 0x38, 0x99, 0x3c, 0x1f, 0xdf, 0xd0, 0xbd, 0x24, 0xb4, 0x09, 0x3e,
  0xfb, 0xe9, 0x0c, 0xbd, 0x8d, 0x30, 0x3f, 0xbd, 0x27, 0x95, 0xb4, 0x3c,
  0xe4, 0x84, 0x02, 0x3e, 0x95, 0xbd, 0xcc, 0xbd, 0x11, 0x04, 0x1e, 0xbe,
  0x22, 0x04, 0x8e, 0xbd, 0x03, 0x1a, 0xe9, 0x3b, 0x77, 0x88, 0xb8, 0xbd,
  0x9a, 0x1a, 0x1c, 0xbd, 0x00, 0x94, 0xb0, 0x3d, 0x7b, 0xa3, 0x4d, 0x3e,
  0x90, 0x98, 0x0d, 0x3c, 0xd2, 0x24, 0x06, 0xbe, 0x7a, 0x0c, 0x9d, 0xbd,
  0x40, 0x2c, 0xbe, 0xbc, 0xc2, 0x7e, 0xdc, 0xbc, 0xef, 0x44, 0x12, 0xbe,
  0xfc, 0xe8, 0x0d, 0x3e, 0x5d, 0x67, 0x91, 0x3d, 0x8e, 0xa3, 0x20, 0xbe,
  0xbc, 0x52, 0xf1, 0xbd, 0x3e, 0xd0, 0x1c, 0x3d, 0xf4, 0x45, 0xf1, 0x3c,
  0x03, 0x95, 0x8f, 0xbd, 0x71, 0x15, 0x4a, 0xbe, 0x7e, 0x3c, 0xa5, 0x3c,
  0x28, 0x17, 0x6f, 0x3e, 0x50, 0x45, 0xac, 0x3d, 0x19, 0xb5, 0xf4, 0x3d,
  0x94, 0x2d, 0x96, 0x3d, 0xf4, 0xf9, 0x9d, 0x3d, 0xe4, 0xb3, 0xb2, 0x3c,
  0x94, 0x5f, 0x5b, 0x3d, 0x03, 0xb1, 0x61, 0xbe, 0xc1, 0x1a, 0xd9, 0x3d,
  0x89, 0x98, 0xcd, 0xbd, 0x12, 0xbd, 0x33, 0xbd, 0xa2, 0x39, 0xfe, 0x3d,
  0xb2, 0xfd, 0xb2, 0x3d, 0x64, 0x8e, 0x99, 0xbd, 0xae, 0xaf, 0x30, 0x3e,
  0x51, 0xf7, 0xa0, 0x3d, 0x74, 0x6b, 0xfd, 0x3d, 0xc2, 0x2c, 0x1a, 0x3a,
  0x0a, 0x69, 0x4c, 0xbd, 0x29, 0x38, 0x04, 0x3e, 0x8b, 0xd7, 0x47, 0xbd,
  0x5c, 0x48, 0x34, 0x3d, 0xf6, 0xc1, 0xda, 0x3d, 0x79, 0xf9, 0x1a, 0x3e,
  0x3a, 0xa7, 0x9f, 0x3d, 0x84, 0x36, 0xaa, 0xbc, 0xd1, 0x2a, 0x8d, 0xbb,
  0x2d, 0x85, 0x2a, 0x3e, 0xd3, 0x9a, 0x3c, 0x3d, 0xd1, 0xa0, 0xb9, 0xbd,
  0x88, 0xc3, 0x81, 0xbd, 0x94, 0x39, 0x36, 0xbe, 0x52, 0x56, 0x5b, 0xbc,
  0xfd, 0x9d, 0xc2, 0x3b, 0xbd, 0xef, 0x05, 0x3e, 0x92, 0x7f, 0xbf, 0x3d,
  0x88, 0x01, 0x4b, 0xbe, 0x16, 0x25, 0x08, 0xbe, 0xb2, 0xc0, 0x0e, 0x3d,
  0x56, 0x9d, 0x8d, 0x3a, 0x4a, 0x75, 0x41, 0x3e, 0x2f, 0x9b, 0x9c, 0xbd,
  0xe6, 0x2d, 0x66, 0xbd, 0xe6, 0x75, 0x23, 0x3c, 0xfe, 0x1f, 0xb9, 0x3d,
  0x21, 0x84, 0x96, 0xbd, 0x19, 0x67, 0x31, 0xbd, 0xe1, 0xc0, 0xd1, 0xbb,
  0xfe, 0x5e, 0x0d, 0x3e, 0x95, 0x2e, 0x5a, 0xbe, 0x52, 0x30, 0x4e, 0xbe,
  0xd2, 0xa1, 0xd1, 0x3c, 0x6a, 0x89, 0xb5, 0xbc, 0xb9, 0x33, 0x7a, 0x3e,
  0xa2, 0x89, 0x0f, 0x3e, 0x02, 0x71, 0x12, 0xbb, 0x7f, 0xbf, 0xc1, 0x3d,
  0x57, 0xce, 0x96, 0xbc, 0x2d, 0x32, 0xf5, 0x3b, 0x9a, 0x6b, 0x1a, 0xbd,
  0x21, 0x36, 0x9f, 0xbd, 0x86, 0x24, 0xfd, 0xbc, 0x89, 0xd2, 0x78, 0x3c,
  0x7a, 0x55, 0x28, 0xbe, 0x7d, 0x10, 0x5b, 0x3e, 0xf1, 0x78, 0x26, 0xbe,
  0x91, 0xad, 0x9f, 0x3c, 0x62, 0xe0, 0x25, 0xbc, 0xc3, 0x4c, 0x24, 0xbd,
  0xa3, 0x42, 0x87, 0x3c, 0x5b, 0x5c, 0xc9, 0x3d, 0x0c, 0x8a, 0x24, 0x3d,
  0xd7, 0xb6, 0x3c, 0xbd, 0x5f, 0xd6, 0x1a, 0x3e, 0x97, 0x34, 0x06, 0x3e,
  0xa6, 0x90, 0x60, 0xbe, 0xd4, 0x0c, 0x74, 0xbe, 0xea, 0x6f, 0xc9, 0xbd,
  0xf1, 0xcd, 0x17, 0xbe, 0xeb, 0x4e, 0x2d, 0x3e, 0x09, 0xa3, 0x97, 0xbd,
  0x05, 0x16, 0xaa, 0xba, 0x8f, 0x2f, 0x91, 0xbd, 0xac, 0x50, 0xbf, 0xbd,
  0x5f, 0x3f, 0x00, 0x3e, 0x45, 0x7c, 0x53, 0xbc, 0x0b, 0xe2, 0x46, 0xbd,
  0xa3, 0x45, 0xdd, 0x3d, 0xec, 0xf3, 0xf8, 0xbd, 0x3a, 0x6b, 0xb5, 0xbd,
  0xfd, 0xab, 0xd5, 0x3c, 0x2c, 0xfb, 0x7f, 0xbd, 0x0a, 0xb8, 0xb4, 0x3c,
  0xc0, 0x29, 0xbf, 0xbb, 0x0d, 0x28, 0x53, 0x3d, 0xad, 0x69, 0xde, 0xbd,
  0x60, 0x5a, 0x58, 0x3d, 0xd2, 0x61, 0x9a, 0x3d, 0xe3, 0xc6, 0xd6, 0x3d,
  0x68, 0xce, 0x8a, 0x3d, 0xd2, 0xd2, 0x73, 0x3e, 0xaf, 0x7f, 0x23, 0xbd,
  0xaa, 0xf5, 0x3a, 0xbe, 0x2e, 0x84, 0xa8, 0xbd, 0x7e, 0x38, 0x1c, 0x3e,
  0x96, 0x5b, 0x92, 0x3d, 0xf8, 0x7a, 0x61, 0xbd, 0x82, 0xde, 0x45, 0x3e,
  0xbe, 0xf5, 0xf1, 0x3b, 0x4d, 0xec, 0xb3, 0xbc, 0x5a, 0xee, 0x99, 0xbd,
  0x9d, 0xa1, 0xd3, 0x3c, 0x9f, 0x10, 0xb6, 0x3d, 0x25, 0x4a, 0xd1, 0xbc,
  0xa8, 0xc8, 0x4e, 0x3d, 0x7e, 0xcf, 0xfc, 0x3c, 0x96, 0x50, 0xbf, 0xbd,
  0x32, 0x8d, 0x7c, 0x3c, 0xbb, 0x1e, 0x57, 0x3d, 0xd1, 0xd3, 0x17, 0xbd,
  0x40, 0xfa, 0xf9, 0x3d, 0xb4, 0x1d, 0x1d, 0x3d, 0x0b, 0xe6, 0x0f, 0xbe,
  0x7a, 0xbc, 0x14, 0x3e, 0xe1, 0xe8, 0xda, 0x3d, 0x47, 0x99, 0x7a, 0x3e,
  0xf8, 0x6d, 0x15, 0x3e, 0x21, 0xc1, 0x35, 0xbd, 0x98, 0x58, 0x4f, 0xbd,
  0x10, 0x2f, 0x61, 0x3d, 0x97, 0x58, 0x1e, 0x3e, 0x41, 0x31, 0x44, 0x3e,
  0x71, 0xee, 0x8e, 0x3d, 0x3c, 0x8c, 0x81, 0x3d, 0x69, 0x74, 0xe8, 0x3d,
  0x26, 0xae, 0x66, 0xbe, 0x04, 0xfa, 0x17, 0x3e, 0x8f, 0xe8, 0x85, 0x3e,
  0xc0, 0xe4, 0x5a, 0xbd, 0xe5, 0x6f, 0x80, 0x3d, 0xc3, 0x18, 0x12, 0xbe,
  0x81, 0x14, 0x20, 0xbd, 0x50, 0xb5, 0x56, 0x3b, 0xc1, 0xa5, 0x9a, 0x3d,
  0xe8, 0x50, 0xcb, 0x3c, 0xd0, 0x80, 0xd4, 0xbb, 0x85, 0xe4, 0x7e, 0xbc,
  0x72, 0x55, 0x9f, 0x3d, 0x23, 0x0e, 0x28, 0xbd, 0x92, 0x52, 0x86, 0xbd,
  0x4a, 0x22, 0xfb, 0x3d, 0xaa, 0x3f, 0xb9, 0x3d, 0xdd, 0x3a, 0xd2, 0xbd,
  0x71, 0x57, 0xab, 0x3d, 0x1d, 0xd4, 0xc7, 0xbd, 0x41, 0x3a, 0xbc, 0x3d,
  0xc3, 0x15, 0x26, 0x3e, 0x69, 0x6c, 0x2a, 0x3e, 0x02, 0xc2, 0xc4, 0xbd,
  0xaf, 0x35, 0x21, 0xbe, 0x8c, 0xdc, 0xdb, 0xbc, 0x62, 0x20, 0x30, 0xbd,
  0xe0, 0x5e, 0x9d, 0xbd, 0x0e, 0xd8, 0xff, 0xff, 0x04, 0x00, 0x00, 0x00,
  0x0c, 0x00, 0x00, 0x00, 0x01, 0x00, 0x00, 0x00, 0x01, 0x00, 0x00, 0x00,
  0x0a, 0x00, 0x00, 0x00, 0x94, 0xd7, 0xff, 0xff, 0x98, 0xd7, 0xff, 0xff,
  0x9c, 0xd7, 0xff, 0xff, 0xa0, 0xd7, 0xff, 0xff, 0xa4, 0xd7, 0xff, 0xff,
  0x3a, 0xd8, 0xff, 0xff, 0x04, 0x00, 0x00, 0x00, 0x78, 0x00, 0x00, 0x00,
  0x32, 0x03, 0x81, 0x3d, 0x30, 0x31, 0xf1, 0x3c, 0x76, 0x29, 0xdf, 0x3d,
  0x2a, 0x7c, 0x3e, 0xbc, 0x3f, 0xfa, 0xad, 0x3c, 0x84, 0xbc, 0xb6, 0x3c,
  0x12, 0x4a, 0xb7, 0x3c, 0xd8, 0xd3, 0x3c, 0xbb, 0xc9, 0xbe, 0x5c, 0x3d,
  0x2c, 0x0a, 0xac, 0x3c, 0xc7, 0xa7, 0xad, 0x3c, 0xc7, 0xed, 0xaf, 0x3b,
  0x9e, 0x21, 0x85, 0x3c, 0xd1, 0xb3, 0xc9, 0x3d, 0xe1, 0x43, 0x87, 0x3d,
  0x13, 0xb6, 0xda, 0x3b, 0x79, 0x79, 0x2b, 0x3c, 0x83, 0x59, 0xf3, 0x3c,
  0x77, 0x50, 0x9f, 0xbc, 0x40, 0x06, 0x85, 0xbc, 0x88, 0x54, 0x90, 0x3c,
  0xa6, 0x7e, 0x77, 0x3d, 0x59, 0xbc, 0x05, 0x3d, 0xe8, 0x93, 0x01, 0xbc,
  0xfe, 0x6e, 0xde, 0x38, 0x0c, 0x62, 0x4f, 0x3d, 0x7f, 0xa8, 0x4c, 0x3c,
  0xd3, 0x80, 0xe4, 0xbb, 0xcd, 0xca, 0x2a, 0x3d, 0xf7, 0x1e, 0x06, 0x3d,
  0xbe, 0xd8, 0xff, 0xff, 0x04, 0x00, 0x00, 0x00, 0x0c, 0x00, 0x00, 0x00,
  0x01, 0x00, 0x00, 0x00, 0x2d, 0x00, 0x00, 0x00, 0x1e, 0x00, 0x00, 0x00,
  0x44, 0xd8, 0xff, 0xff, 0x48, 0xd8, 0xff, 0xff, 0xde, 0xd8, 0xff, 0xff,
  0x04, 0x00, 0x00, 0x00, 0x28, 0x00, 0x00, 0x00, 0x00, 0x00, 0x00, 0x00,
  0x00, 0x00, 0x00, 0x00, 0x00, 0x00, 0x00, 0x00, 0x00, 0x00, 0x00, 0x00,
  0x00, 0x00, 0x00, 0x00, 0x00, 0x00, 0x00, 0x00, 0x00, 0x00, 0x00, 0x00,
  0x00, 0x00, 0x00, 0x00, 0x00, 0x00, 0x00, 0x00, 0x00, 0x00, 0x00, 0x00,
  0x80, 0xd8, 0xff, 0xff, 0x84, 0xd8, 0xff, 0xff, 0x88, 0xd8, 0xff, 0xff,
  0x1e, 0xd9, 0xff, 0xff, 0x04, 0x00, 0x00, 0x00, 0x10, 0x00, 0x00, 0x00,
  0x01, 0x00, 0x00, 0x00, 0x01, 0x00, 0x00, 0x00, 0x09, 0x00, 0x00, 0x00,
  0x1e, 0x00, 0x00, 0x00, 0xa8, 0xd8, 0xff, 0xff, 0x3e, 0xd9, 0xff, 0xff,
  0x04, 0x00, 0x00, 0x00, 0x10, 0x00, 0x00, 0x00, 0x01, 0x00, 0x00, 0x00,
  0x01, 0x00, 0x00, 0x00, 0x31, 0x00, 0x00, 0x00, 0x0d, 0x00, 0x00, 0x00,
  0x5a, 0xd9, 0xff, 0xff, 0x04, 0x00, 0x00, 0x00, 0x78, 0x00, 0x00, 0x00,
  0x00, 0x00, 0x00, 0x00, 0x00, 0x00, 0x00, 0x00, 0x00, 0x00, 0x00, 0x00,
  0x00, 0x00, 0x00, 0x00, 0x00, 0x00, 0x00, 0x00, 0x00, 0x00, 0x00, 0x00,
  0x00, 0x00, 0x00, 0x00, 0x00, 0x00, 0x00, 0x00, 0x00, 0x00, 0x00, 0x00,
  0x00, 0x00, 0x00, 0x00, 0x00, 0x00, 0x00, 0x00, 0x00, 0x00, 0x00, 0x00,
  0x00, 0x00, 0x00, 0x00, 0x00, 0x00, 0x00, 0x00, 0x00, 0x00, 0x00, 0x00,
  0x00, 0x00, 0x00, 0x00, 0x00, 0x00, 0x00, 0x00, 0x00, 0x00, 0x00, 0x00,
  0x00, 0x00, 0x00, 0x00, 0x00, 0x00, 0x00, 0x00, 0x00, 0x00, 0x00, 0x00,
  0x00, 0x00, 0x00, 0x00, 0x00, 0x00, 0x00, 0x00, 0x00, 0x00, 0x00, 0x00,
  0x00, 0x00, 0x00, 0x00, 0x00, 0x00, 0x00, 0x00, 0x00, 0x00, 0x00, 0x00,
  0x00, 0x00, 0x00, 0x00, 0x00, 0x00, 0x00, 0x00, 0x00, 0x00, 0x00, 0x00,
  0xde, 0xd9, 0xff, 0xff, 0x04, 0x00, 0x00, 0x00, 0x10, 0x00, 0x00, 0x00,
  0x01, 0x00, 0x00, 0x00, 0x2d, 0x00, 0x00, 0x00, 0x01, 0x00, 0x00, 0x00,
  0x1e, 0x00, 0x00, 0x00, 0xfa, 0xd9, 0xff, 0xff, 0x04, 0x00, 0x00, 0x00,
  0x70, 0x17, 0x00, 0x00, 0x06, 0xe1, 0xbc, 0xbc, 0xc7, 0x53, 0x82, 0x3e,
  0x6c, 0xca, 0xc3, 0xbd, 0x44, 0xcd, 0x2c, 0x3d, 0xfb, 0x4e, 0x36, 0x3c,
  0x10, 0xd7, 0x15, 0x3e, 0x2c, 0xb5, 0x93, 0xbd, 0x6f, 0xdb, 0x4b, 0x3d,
  0x03, 0x79, 0x33, 0x3c, 0x5e, 0xba, 0x2a, 0x3e, 0xea, 0xef, 0xab, 0x3d,
  0x3b, 0xce, 0xcf, 0x3b, 0xf9, 0xd6, 0x07, 0x3d, 0x98, 0xc3, 0x83, 0xbc,
  0x0d, 0x31, 0x32, 0xbe, 0x01, 0xaa, 0x23, 0x3e, 0x8f, 0xa9, 0x2d, 0x3e,
  0x4c, 0x93, 0x50, 0xbd, 0x6a, 0x10, 0xc4, 0x3c, 0xec, 0x93, 0xbb, 0x3d,
  0xaf, 0x18, 0x76, 0xbd, 0xcd, 0xc5, 0xf8, 0x3c, 0x56, 0xd9, 0xb0, 0xbd,
  0x10, 0xb7, 0xb2, 0xbd, 0xfb, 0x85, 0x95, 0x3d, 0x8a, 0x3b, 0x8e, 0x3d,
  0x08, 0x43, 0xd0, 0x3d, 0xf9, 0x87, 0x35, 0x3d, 0x89, 0x59, 0x53, 0x3e,
  0xf9, 0x7a, 0x54, 0x3e, 0xcf, 0x34, 0x2c, 0xbe, 0x23, 0xc9, 0x50, 0x3e,
  0x7f, 0x2f, 0xb0, 0x3d, 0x58, 0x5e, 0xe6, 0xbd, 0x1c, 0x69, 0x07, 0xbe,
  0x0b, 0x76, 0xc2, 0xbd, 0x50, 0x68, 0x8e, 0x3c, 0x62, 0x03, 0x37, 0x3d,
  0x79, 0x12, 0x3c, 0x3d, 0x6b, 0x04, 0xe3, 0xbc, 0x8a, 0x2d, 0xd1, 0xbd,
  0xb2, 0x12, 0xb0, 0xbd, 0xd2, 0x7f, 0xed, 0xbd, 0x24, 0x7e, 0x94, 0xbd,
  0x61, 0xd5, 0x45, 0xbe, 0x46, 0xd1, 0x5d, 0x3c, 0xf5, 0x62, 0x63, 0x3d,
  0xc6, 0xdd, 0xb6, 0x3d, 0x41, 0x24, 0x61, 0x3d, 0x99, 0x1b, 0x1a, 0xbe,
  0x4d, 0x65, 0x17, 0xbe, 0xec, 0x85, 0x39, 0x3d, 0xe2, 0x35, 0x2d, 0x3d,
  0x8e, 0x6d, 0x15, 0x3e, 0xeb, 0xef, 0x98, 0x3b, 0xd2, 0x5e, 0x06, 0xbe,
  0x19, 0x10, 0xbc, 0xbd, 0x46, 0x64, 0xc3, 0xbd, 0x83, 0xb6, 0xe7, 0xbd,
  0xc7, 0xd1, 0x36, 0x3e, 0xdf, 0xb1, 0xf2, 0xbd, 0x3e, 0x37, 0x93, 0xbd,
  0xb6, 0x39, 0xea, 0xbd, 0x65, 0xc5, 0x2d, 0x3d, 0x66, 0x53, 0xd9, 0x3c,
  0x78, 0x00, 0xe6, 0xbd, 0xa3, 0x4c, 0x6a, 0xbd, 0x84, 0x78, 0x11, 0x3e,
  0x52, 0x4a, 0x29, 0x3e, 0x5c, 0x04, 0x2b, 0xbd, 0xaa, 0xf9, 0x89, 0xbd,
  0xad, 0x7a, 0x20, 0xbe, 0xc3, 0xf5, 0x65, 0x3d, 0xa8, 0x2d, 0x8a, 0xbd,
  0x99, 0xca, 0x05, 0xba, 0x21, 0x9a, 0x5d, 0x3d, 0xe2, 0x86, 0xf8, 0xbd,
  0x2a, 0x93, 0x17, 0xbe, 0x95, 0x16, 0x8a, 0xbc, 0x9d, 0xd8, 0x00, 0x39,
  0x3d, 0x85, 0xbb, 0xbd, 0xe4, 0xad, 0xb6, 0x3d, 0xcb, 0x5a, 0xb1, 0xbd,
  0x13, 0x91, 0xac, 0xbd, 0x84, 0x37, 0x6b, 0x3d, 0x7d, 0xf1, 0x32, 0xbe,
  0x70, 0xfd, 0x93, 0xbd, 0xa2, 0x7c, 0x0d, 0xbe, 0x15, 0x4a, 0x90, 0x3d,
  0xa6, 0x90, 0x5b, 0xbd, 0x59, 0x37, 0x72, 0x3d, 0x52, 0xd6, 0x5f, 0xbd,
  0xe5, 0xce, 0xcd, 0xbd, 0x72, 0x65, 0x89, 0x3d, 0x5b, 0x8c, 0xb3, 0x3c,
  0x06, 0x40, 0x1e, 0x3e, 0x6a, 0xd2, 0x56, 0x3c, 0xa1, 0xfd, 0x54, 0x3c,
  0x5e, 0x98, 0x15, 0xbe, 0x89, 0x47, 0x8e, 0x3c, 0x20, 0x30, 0x03, 0xbd,
  0x51, 0xba, 0x01, 0x3e, 0x33, 0xe3, 0xe6, 0xbd, 0xe6, 0xda, 0x19, 0xbe,
  0x72, 0xf6, 0x98, 0x3d, 0x5c, 0x04, 0x21, 0xbe, 0x32, 0x0f, 0x37, 0xbe,
  0xd9, 0xc0, 0x94, 0x3c, 0xb4, 0x80, 0x22, 0x3e, 0x40, 0x29, 0x06, 0x3e,
  0x7d, 0x6c, 0x49, 0xbb, 0x79, 0x9c, 0x58, 0x3e, 0xe9, 0x76, 0x49, 0xbe,
  0xef, 0x17, 0xbe, 0xbc, 0xe3, 0x0f, 0xbc, 0xbc, 0xe3, 0x34, 0x63, 0x3c,
  0x75, 0xd1, 0x81, 0x3b, 0x4e, 0x93, 0x21, 0xbe, 0x21, 0xef, 0x1a, 0xbc,
  0xa1, 0xf7, 0xa5, 0xbd, 0xf5, 0xb4, 0xc4, 0x3d, 0xa4, 0x45, 0x5b, 0xbe,
  0x24, 0xa8, 0x17, 0x3e, 0x11, 0x23, 0x39, 0x3d, 0xc2, 0x3b, 0xd0, 0xbc,
  0x47, 0x5f, 0x15, 0x3e, 0x37, 0x0d, 0x5b, 0xbe, 0xe1, 0xac, 0x6d, 0xbc,
  0xde, 0xd5, 0xf9, 0x3d, 0x60, 0x55, 0x04, 0x3e, 0x74, 0x8a, 0xfb, 0x3d,
  0x2c, 0x4d, 0xe0, 0x3c, 0x16, 0x9b, 0x87, 0xbd, 0xcc, 0x03, 0x16, 0xbe,
  0x35, 0x37, 0xb1, 0x3d, 0xa0, 0x97, 0x47, 0xbd, 0x1c, 0x3d, 0x8d, 0xbb,
  0xa1, 0xc0, 0x31, 0x3d, 0x3c, 0x5e, 0x78, 0xbc, 0x4e, 0x85, 0xf7, 0x3d,
  0xc9, 0xd2, 0xf3, 0xbd, 0xa5, 0x5c, 0x13, 0xbe, 0xa9, 0xe2, 0xe7, 0x3c,
  0xb9, 0xc7, 0x5e, 0xbe, 0xaa, 0x60, 0xe5, 0x3c, 0x20, 0x66, 0x9b, 0x3a,
  0xd8, 0x62, 0x80, 0xbd, 0x12, 0xc6, 0x4e, 0xbd, 0x93, 0xae, 0x12, 0x3e,
  0x01, 0xe5, 0x71, 0x3d, 0x95, 0x15, 0x25, 0x3d, 0x37, 0x12, 0x7e, 0xbd,
  0x3c, 0xca, 0x68, 0x3e, 0x69, 0xbf, 0x12, 0xbe, 0xd7, 0x45, 0xf6, 0x3d,
  0x33, 0x28, 0x34, 0xbe, 0xa9, 0x62, 0xa5, 0xbd, 0x49, 0x11, 0x82, 0xbc,
  0x4a, 0x97, 0x92, 0xbd, 0xdc, 0x2a, 0x4a, 0xbe, 0x53, 0x34, 0x67, 0x3d,
  0x4d, 0xd1, 0x23, 0xbe, 0x43, 0x26, 0xf5, 0x3d, 0x5f, 0xb2, 0x23, 0x3e,
  0xd4, 0x14, 0x4e, 0xbe, 0x54, 0x9b, 0xdd, 0x3d, 0xa3, 0x15, 0x15, 0x3e,
  0x15, 0xdc, 0x13, 0xbe, 0x20, 0x26, 0x49, 0xbe, 0xf6, 0x02, 0x7b, 0xbd,
  0xb1, 0x17, 0x58, 0xbd, 0x6e, 0x81, 0xa0, 0x39, 0xfe, 0x47, 0x89, 0x3d,
  0xae, 0x32, 0x05, 0xbd, 0x59, 0xe2, 0x5d, 0x3e, 0x19, 0x66, 0xaf, 0x3b,
  0x5f, 0x45, 0x86, 0x3a, 0x0d, 0x05, 0xe6, 0xbd, 0x69, 0x2d, 0x03, 0x3e,
  0x28, 0x1e, 0x89, 0xbd, 0x45, 0x91, 0x01, 0xbe, 0x20, 0x28, 0x54, 0x3e,
  0xd8, 0x89, 0xaf, 0x3d, 0x82, 0xe8, 0xa0, 0x3d, 0x14, 0x87, 0x30, 0x3e,
  0xe9, 0x15, 0x81, 0x3d, 0x5a, 0xb2, 0x85, 0xbd, 0x1b, 0x77, 0x8a, 0x3e,
  0x0e, 0xc8, 0xfb, 0x3c, 0x4b, 0xe1, 0x53, 0xbe, 0xe1, 0x31, 0x34, 0x3e,
  0x2e, 0xb0, 0x14, 0x3e, 0x6e, 0xcb, 0xf6, 0x3d, 0xe0, 0xde, 0xb5, 0x3d,
  0x6c, 0x44, 0x59, 0xbe, 0x94, 0xfd, 0x98, 0x3d, 0x3a, 0x19, 0x4b, 0x3e,
  0x3e, 0x3a, 0x94, 0xbb, 0xb5, 0xb3, 0x64, 0xbd, 0xa2, 0xdc, 0x2b, 0x3c,
  0x44, 0x32, 0x27, 0x3e, 0x76, 0x3f, 0x36, 0x3e, 0xd7, 0x3a, 0x54, 0x3e,
  0xe0, 0x52, 0x30, 0x3e, 0xbe, 0x28, 0x48, 0x3e, 0xc3, 0x1d, 0x5b, 0xbe,
  0xc5, 0x18, 0x24, 0xbe, 0xe8, 0x9e, 0x86, 0xbd, 0x10, 0x5d, 0x10, 0xbd,
  0x3b, 0x9e, 0x8b, 0xbc, 0x4d, 0x6f, 0xcc, 0xbd, 0xab, 0xb2, 0xfe, 0xbd,
  0xfc, 0xbc, 0xc0, 0xbd, 0x83, 0xae, 0xda, 0x3d, 0xb8, 0x39, 0x59, 0xbd,
  0x73, 0xf2, 0x34, 0x3e, 0x1e, 0x2d, 0x2f, 0x3d, 0xc9, 0x9b, 0x2f, 0x3e,
  0xac, 0x4b, 0x60, 0xbe, 0x2b, 0x03, 0xb0, 0xbb, 0x86, 0x0a, 0x1f, 0x3c,
  0x95, 0x4b, 0x5b, 0x3c, 0x4b, 0xd9, 0x46, 0xbc, 0x21, 0x90, 0x4b, 0xbd,
  0x33, 0xc3, 0x77, 0xbe, 0x15, 0x1a, 0x07, 0xbe, 0xe6, 0x82, 0x67, 0x3e,
  0xce, 0x35, 0xe0, 0xbd, 0xc9, 0x98, 0x0f, 0x3d, 0x29, 0xba, 0x2c, 0x3e,
  0x48, 0x94, 0xb4, 0xbd, 0xf5, 0xf9, 0x26, 0xbe, 0xd0, 0x26, 0x48, 0xbe,
  0xeb, 0x20, 0x03, 0xbc, 0x5e, 0xcf, 0xe5, 0xbc, 0xfb, 0x82, 0x18, 0xbe,
  0xcc, 0x89, 0x34, 0xbe, 0x46, 0x94, 0x15, 0x3e, 0x89, 0x1d, 0x5a, 0xbe,
  0xed, 0x78, 0x11, 0x3e, 0x12, 0xee, 0xc4, 0xbc, 0xe9, 0xbd, 0x3a, 0x3e,
  0xc6, 0x73, 0xc1, 0x3d, 0xfe, 0x43, 0x6a, 0x3e, 0x34, 0xe6, 0x8a, 0x3d,
  0x1c, 0x21, 0xb3, 0x3d, 0xce, 0x4a, 0xac, 0x3b, 0xe6, 0x2f, 0xf3, 0xbc,
  0xaa, 0xbe, 0x70, 0x3d, 0x71, 0x7d, 0x8f, 0xbd, 0xeb, 0x32, 0xb5, 0x3d,
  0x17, 0xe4, 0x2d, 0x3a, 0x01, 0xc3, 0xe4, 0xbd, 0x5e, 0x59, 0x0b, 0xbe,
  0x1c, 0xf6, 0x90, 0xbd, 0xdb, 0xfe, 0xcd, 0xbd, 0xea, 0xba, 0x4a, 0x3e,
  0x09, 0x18, 0x0d, 0xbe, 0x31, 0xf3, 0x94, 0xbd, 0x28, 0x07, 0x55, 0xbe,
  0x3a, 0x8f, 0xd0, 0xbc, 0x28, 0x26, 0x2e, 0xbd, 0xc5, 0xc6, 0x71, 0xbe,
  0x51, 0xc5, 0x0b, 0xbe, 0x1a, 0xcf, 0xff, 0xbb, 0x0e, 0xcf, 0x3e, 0xbe,
  0x9e, 0x67, 0x5a, 0xbe, 0xc8, 0x2d, 0x1b, 0xbe, 0x77, 0x26, 0x91, 0x3d,
  0x17, 0xe8, 0x46, 0x3d, 0xb3, 0xb3, 0x81, 0xbc, 0x01, 0x91, 0x1d, 0x3e,
  0x92, 0x3b, 0x3c, 0xbe, 0x70, 0x6c, 0x69, 0xbd, 0x25, 0x6e, 0x48, 0xbd,
  0xda, 0x1a, 0xb2, 0xbd, 0x7b, 0xb5, 0xc3, 0xbc, 0x0a, 0xbd, 0x55, 0x3d,
  0xdd, 0x02, 0xc7, 0xbd, 0xcf, 0xd0, 0xdd, 0xb9, 0x02, 0x32, 0x28, 0x3c,
  0xd6, 0x97, 0xc3, 0xbd, 0xa0, 0xb1, 0xb5, 0xbd, 0xc6, 0xf1, 0x2a, 0x3e,
  0x61, 0x84, 0x2b, 0x3e, 0x3b, 0x62, 0x0e, 0xbe, 0x4b, 0xf6, 0x78, 0xbe,
  0xdc, 0x8b, 0xef, 0x3c, 0xdd, 0x6b, 0x0f, 0xbe, 0xb4, 0x7f, 0xbc, 0x3d,
  0x05, 0xd3, 0x42, 0xbe, 0xda, 0x7b, 0xfc, 0x3c, 0x71, 0xfa, 0x35, 0xbe,
  0xc2, 0xf2, 0xec, 0x3d, 0xb6, 0x3f, 0x36, 0x3e, 0x67, 0xd9, 0x62, 0xbd,
  0x16, 0x7c, 0x14, 0x3e, 0xf7, 0x17, 0xdb, 0xbd, 0xa8, 0x31, 0x24, 0x3c,
  0x35, 0xac, 0x3c, 0xbd, 0xc4, 0x8c, 0x69, 0x3d, 0x9b, 0x6a, 0x3a, 0x3e,
  0x47, 0x70, 0x14, 0xbe, 0xeb, 0x9c, 0xca, 0x3d, 0x9f, 0x4c, 0x2e, 0xbe,
  0xac, 0x4d, 0x20, 0x3e, 0xda, 0x95, 0xd2, 0xbd, 0xcf, 0xec, 0x2d, 0xbd,
  0x65, 0x0e, 0x06, 0x3d, 0x92, 0xfe, 0xff, 0x3d, 0xa0, 0x46, 0x3b, 0xbd,
  0x5d, 0xf7, 0xd6, 0xbd, 0xfa, 0x91, 0x1f, 0xbd, 0x54, 0x1d, 0xee, 0xbb,
  0x28, 0x18, 0xa7, 0x3c, 0xf9, 0x11, 0x09, 0x3e, 0x02, 0x59, 0x1b, 0xbe,
  0xe3, 0x7a, 0x8e, 0xbe, 0x00, 0x6a, 0xf3, 0x3d, 0x2e, 0x88, 0x87, 0xbd,
  0xad, 0x36, 0x2b, 0xbe, 0x0c, 0x53, 0x81, 0x3d, 0x01, 0x61, 0xd3, 0x3d,
  0x0d, 0xba, 0x0f, 0x3d, 0x8d, 0x0f, 0x31, 0x3e, 0x85, 0xe8, 0x8a, 0x3d,
  0xdb, 0x5a, 0x85, 0x3c, 0x76, 0xd6, 0x7b, 0x3c, 0x9b, 0xcc, 0x48, 0x3e,
  0xc9, 0xf9, 0x01, 0x3e, 0x1d, 0xe5, 0x50, 0x3d, 0x12, 0x70, 0x84, 0xbc,
  0x05, 0xfe, 0x72, 0x3d, 0xb5, 0xdf, 0xe1, 0xbc, 0x1a, 0xa7, 0x2d, 0xbe,
  0x5c, 0xad, 0x9e, 0x3d, 0xe2, 0x23, 0x31, 0x3e, 0x92, 0x12, 0x91, 0x3d,
  0x4c, 0xb9, 0x78, 0xbc, 0x91, 0x5e, 0xa3, 0xbd, 0x71, 0xa5, 0x47, 0xbe,
  0xdf, 0xf3, 0x92, 0x3c, 0x17, 0xbd, 0x5b, 0x3d, 0x1a, 0xb5, 0x41, 0xbe,
  0x77, 0x27, 0x01, 0xbe, 0x8c, 0xa2, 0x9c, 0x3d, 0x06, 0x97, 0x0d, 0xbd,
  0xc4, 0x1b, 0xd5, 0xbd, 0xb3, 0x6b, 0xdc, 0x3d, 0x99, 0x77, 0x8c, 0x3d,
  0xb1, 0xe0, 0xea, 0x3d, 0xa8, 0x29, 0x85, 0xbe, 0xb5, 0x89, 0x01, 0x3e,
  0x46, 0xeb, 0xd5, 0xbd, 0xb5, 0x23, 0x74, 0x3e, 0x2c, 0xe2, 0x6f, 0x3d,
  0xab, 0x3a, 0xe9, 0x3c, 0x8b, 0x9b, 0x0d, 0x3e, 0xc6, 0x72, 0xbc, 0x3d,
  0x8a, 0x6a, 0x71, 0x3e, 0x35, 0x87, 0x64, 0xbc, 0x0c, 0x15, 0xfc, 0xbd,
  0x3e, 0x03, 0x0a, 0x3d, 0xc4, 0xa8, 0xbc, 0xbd, 0x65, 0x9a, 0xb3, 0xbd,
  0xab, 0x44, 0x44, 0x3e, 0xae, 0xbc, 0xd7, 0x3c, 0x05, 0xa4, 0x20, 0xbd,
  0x02, 0x9a, 0x31, 0xbe, 0xbe, 0xfe, 0x27, 0x3e, 0xd5, 0xd2, 0x4b, 0xbd,
  0x02, 0xf9, 0x7b, 0x3d, 0xef, 0x9d, 0xc1, 0xbd, 0x30, 0xa9, 0x9e, 0xbe,
  0x2f, 0x54, 0x42, 0xbe, 0xd2, 0xfa, 0x01, 0x3e, 0x02, 0x24, 0x42, 0xbe,
  0x50, 0x8c, 0xb2, 0x3c, 0xa2, 0xe4, 0x81, 0xba, 0xa6, 0xe4, 0x13, 0x3e,
  0x13, 0xec, 0x09, 0xbe, 0xa7, 0x07, 0x2c, 0xbe, 0x12, 0x34, 0x17, 0x3e,
  0xab, 0x25, 0xe8, 0x3d, 0x9a, 0xa4, 0xb5, 0x3d, 0x9d, 0x35, 0x73, 0xbd,
  0xf2, 0x5e, 0xd5, 0xbd, 0x53, 0x9b, 0x2b, 0xbe, 0x9a, 0xc8, 0xa2, 0x3c,
  0xcd, 0x81, 0xb0, 0x3d, 0x34, 0x4f, 0x4a, 0xbe, 0x2c, 0x9c, 0xf4, 0xbd,
  0x64, 0x11, 0x4f, 0x3e, 0x9b, 0x36, 0x83, 0xbe, 0x6e, 0x4f, 0x3d, 0xbe,
  0x92, 0xe5, 0x3f, 0x3d, 0xd4, 0x83, 0x64, 0xbe, 0xf5, 0x85, 0x00, 0xbe,
  0xe6, 0xa2, 0x31, 0x3e, 0xeb, 0xfd, 0x39, 0xbe, 0xe6, 0xb9, 0x93, 0xbe,
  0xa3, 0xd0, 0x67, 0x3e, 0xec, 0xf2, 0x0c, 0xbe, 0xe9, 0x62, 0x4b, 0xbe,
  0x38, 0xef, 0xd9, 0xbd, 0x54, 0x2f, 0xb9, 0x3c, 0x9d, 0x46, 0xe4, 0x3c,
  0xcf, 0x5a, 0x1f, 0xbe, 0x58, 0x1d, 0x10, 0x3d, 0xd9, 0xa3, 0x33, 0x3d,
  0x05, 0x65, 0x54, 0xbe, 0x90, 0xde, 0x89, 0x3d, 0x83, 0x4f, 0x4c, 0x3e,
  0x0a, 0xb6, 0x21, 0xbd, 0xe1, 0xce, 0x16, 0xbe, 0x1f, 0x37, 0xf0, 0xbd,
  0x59, 0x51, 0x2d, 0x3e, 0xb1, 0x8f, 0x44, 0xbd, 0x1f, 0xbf, 0xc5, 0x3c,
  0x85, 0xd6, 0x1c, 0x3e, 0x84, 0x33, 0x50, 0xbe, 0x74, 0xbd, 0xa3, 0xbd,
  0x3e, 0xec, 0xb6, 0x3d, 0x65, 0x2c, 0x15, 0xbd, 0xc1, 0x6b, 0xa9, 0x3d,
  0xf0, 0x16, 0x30, 0x3e, 0x75, 0xa3, 0x1b, 0xbd, 0xe3, 0xcf, 0x57, 0xbe,
  0xcf, 0xca, 0xb8, 0x3c, 0x46, 0x59, 0xb4, 0x3d, 0x00, 0x68, 0x97, 0xbe,
  0xa3, 0xda, 0x66, 0x3e, 0xd4, 0x7b, 0x13, 0xbd, 0x61, 0x58, 0x9b, 0xbe,
  0x0b, 0xe7, 0x50, 0xbe, 0x01, 0x92, 0x9f, 0x3d, 0x9b, 0xc6, 0x97, 0xbc,
  0xe4, 0x3c, 0x27, 0x3e, 0xbe, 0x64, 0x6b, 0xbd, 0xbc, 0x06, 0xbf, 0x3c,
  0x53, 0x58, 0x94, 0x3d, 0x48, 0x62, 0x99, 0x3c, 0xd5, 0x56, 0x8e, 0xbd,
  0xf0, 0x5b, 0x4d, 0xbd, 0x2a, 0xfd, 0xfb, 0xbd, 0x20, 0xa8, 0x49, 0xbd,
  0xdf, 0x4d, 0x3e, 0x3e, 0xc7, 0xfd, 0x82, 0xbb, 0xed, 0x17, 0xe8, 0x3b,
  0x6f, 0x26, 0x67, 0xbd, 0xe6, 0x32, 0x52, 0x3e, 0x07, 0xff, 0x0a, 0x3e,
  0x47, 0x89, 0x43, 0xbd, 0x72, 0x3d, 0xe3, 0xbd, 0xae, 0x5f, 0xd2, 0xbd,
  0x82, 0x95, 0x68, 0x3e, 0x54, 0x3f, 0x32, 0x3e, 0x23, 0xa9, 0x30, 0x3e,
  0x22, 0x1e, 0xd2, 0xbd, 0x82, 0x63, 0x2c, 0x3d, 0x9b, 0xb2, 0xad, 0xbd,
  0x10, 0xa6, 0xcb, 0x3d, 0x3c, 0xd7, 0xf1, 0x3d, 0x8e, 0x63, 0xef, 0xbd,
  0xd5, 0x16, 0x15, 0xbd, 0x50, 0xec, 0xd6, 0xbd, 0x06, 0x75, 0x3c, 0x3e,
  0xe2, 0x30, 0x07, 0xbe, 0x0c, 0xa6, 0xfe, 0xbc, 0x21, 0x95, 0x6c, 0x3b,
  0x14, 0xdc, 0x6b, 0x3d, 0xf7, 0xef, 0xb9, 0x3c, 0x75, 0x8c, 0xd3, 0xbc,
  0x88, 0x85, 0x1a, 0x3e, 0x18, 0xa5, 0x23, 0x3d, 0x79, 0x60, 0x27, 0xbe,
  0xcf, 0x9c, 0xc5, 0xbd, 0x0d, 0xe8, 0xbd, 0x3d, 0x1a, 0x22, 0x15, 0x3e,
  0x99, 0xd2, 0x9f, 0x3d, 0x56, 0x15, 0xb8, 0x3b, 0x91, 0x2b, 0x73, 0x3e,
  0xfe, 0x2d, 0xd1, 0xb6, 0x24, 0x1d, 0xbc, 0x3d, 0xfa, 0x06, 0x70, 0xbd,
  0xbd, 0x59, 0xa3, 0x3c, 0x49, 0x1c, 0x5a, 0x3e, 0x92, 0xe4, 0x15, 0xbe,
  0xcf, 0x03, 0x69, 0xbe, 0xa7, 0x23, 0x2b, 0x3e, 0xff, 0x20, 0x2b, 0x3d,
  0xdc, 0x01, 0x4b, 0xbe, 0x8a, 0xe3, 0x10, 0xbe, 0xe6, 0xfc, 0x9a, 0x3d,
  0x13, 0x67, 0x48, 0xbe, 0xda, 0x26, 0x14, 0x3e, 0x7a, 0x69, 0x31, 0x3e,
  0x8e, 0xb8, 0x1b, 0x3d, 0x5f, 0xab, 0x0a, 0xbd, 0xce, 0x23, 0x0d, 0xbe,
  0x62, 0x35, 0x5a, 0xbd, 0xcb, 0x09, 0x84, 0xbd, 0x44, 0x26, 0x22, 0x3d,
  0x8f, 0x00, 0x03, 0x3e, 0x48, 0xfb, 0x1b, 0xbd, 0x9f, 0x90, 0xa3, 0xbd,
  0x57, 0xcc, 0xa6, 0xbd, 0x89, 0xcc, 0x68, 0xbd, 0x5e, 0x40, 0x6d, 0x3d,
  0x6c, 0xd3, 0x95, 0xbd, 0xb4, 0x73, 0x70, 0xbe, 0xa6, 0x2f, 0x69, 0x3d,
  0x80, 0x7e, 0x11, 0x3d, 0x27, 0x69, 0x9d, 0x3b, 0x89, 0xf0, 0x05, 0x3e,
  0x92, 0x20, 0xa3, 0xbd, 0x13, 0x49, 0xc3, 0xbc, 0xd4, 0x85, 0x0c, 0x3e,
  0x3b, 0xb1, 0x83, 0x3c, 0x55, 0x44, 0xed, 0xbc, 0xf5, 0xcd, 0xc3, 0x3d,
  0x9f, 0xf8, 0x6a, 0xbe, 0x64, 0xf4, 0x4b, 0xbe, 0xee, 0x8a, 0x7e, 0xbe,
  0xcf, 0x95, 0x04, 0xbe, 0x76, 0xe5, 0xf9, 0x3d, 0xc2, 0x18, 0x62, 0x3e,
  0xdc, 0x2e, 0xda, 0xbc, 0xd6, 0xdb, 0x8c, 0x3d, 0x2c, 0xd1, 0xfc, 0xbd,
  0xa1, 0x99, 0x85, 0xbd, 0x89, 0xc0, 0x2c, 0xbd, 0xcf, 0x58, 0x69, 0x3d,
  0xfb, 0x8a, 0x02, 0x3c, 0x30, 0x56, 0x09, 0x3e, 0x24, 0x9f, 0x54, 0xbe,
  0x70, 0x0f, 0x81, 0xbe, 0x9b, 0x6d, 0xe2, 0xbd, 0xad, 0xef, 0xfe, 0xbb,
  0xa5, 0xa5, 0x1d, 0x3d, 0xc2, 0x4a, 0xeb, 0xbd, 0xcb, 0xe1, 0xc9, 0x3c,
  0x4c, 0x1b, 0x38, 0x3e, 0x07, 0x8f, 0x27, 0x3e, 0x21, 0xc4, 0x95, 0x3d,
  0x4b, 0xc7, 0x0e, 0x3d, 0xcb, 0x46, 0x73, 0xbd, 0x18, 0xb7, 0xc9, 0xbd,
  0x8e, 0x33, 0x2d, 0xbe, 0x70, 0x68, 0x50, 0x3d, 0x66, 0x1d, 0x0a, 0x3d,
  0xef, 0xba, 0x43, 0xbe, 0x58, 0x97, 0x60, 0xbe, 0x4e, 0x30, 0xaf, 0x3d,
  0xa3, 0x74, 0xd9, 0x3b, 0x58, 0xe3, 0x00, 0x3c, 0x36, 0x34, 0xa5, 0xbd,
  0x16, 0xb0, 0xa9, 0x3d, 0x92, 0xfd, 0x57, 0xba, 0x1a, 0x00, 0xbe, 0x3c,
  0x9c, 0x36, 0xe1, 0xbc, 0x38, 0xcc, 0x1b, 0xbe, 0xd4, 0x18, 0x12, 0x3d,
  0xbe, 0xba, 0x6b, 0x3d, 0x22, 0x53, 0xe5, 0x3d, 0xa6, 0x1b, 0x5f, 0xbb,
  0x9c, 0x94, 0xe9, 0x3d, 0xe0, 0x17, 0xc9, 0xbd, 0xfb, 0x29, 0x9d, 0xbd,
  0xba, 0xcd, 0xfd, 0x3c, 0xcc, 0x0a, 0x05, 0xbc, 0x82, 0x5b, 0x5c, 0x3e,
  0xce, 0x0e, 0x47, 0xbd, 0xe2, 0x83, 0xfe, 0xbc, 0x2c, 0x22, 0x8c, 0xbd,
  0xb3, 0x16, 0x16, 0xbe, 0x38, 0x60, 0x57, 0x3e, 0xc5, 0xd8, 0x29, 0x3e,
  0xf4, 0x68, 0x39, 0xbe, 0x12, 0xb3, 0x0e, 0x3e, 0x20, 0xe6, 0x68, 0x3c,
  0x8b, 0x49, 0x53, 0xbe, 0xf2, 0x67, 0xca, 0xbd, 0x62, 0x6f, 0x30, 0x3c,
  0xcf, 0x1c, 0xf9, 0x3d, 0xcd, 0x78, 0x1a, 0xbc, 0x04, 0x0b, 0x04, 0x3e,
  0x39, 0x2a, 0xfc, 0xbd, 0x94, 0xc7, 0x9d, 0x3c, 0x1a, 0xae, 0x0b, 0xbe,
  0x4a, 0x18, 0x46, 0xbe, 0x94, 0xc6, 0xeb, 0x3c, 0x6d, 0x14, 0x9c, 0xbd,
  0x90, 0x00, 0x8a, 0x3d, 0x1f, 0x0c, 0x04, 0x3d, 0x9c, 0xda, 0x05, 0xbe,
  0xee, 0xd7, 0xea, 0xbd, 0x05, 0x08, 0x85, 0xbd, 0x75, 0x40, 0xf4, 0xbc,
  0x35, 0xa3, 0x90, 0xbc, 0xcd, 0xbf, 0x6d, 0x3d, 0x27, 0x05, 0x09, 0xbd,
  0x08, 0xc9, 0x36, 0x3e, 0xe6, 0xea, 0x02, 0x3e, 0xd6, 0xb4, 0xce, 0x3d,
  0xd9, 0x5b, 0x51, 0x3e, 0x18, 0x73, 0x66, 0xbd, 0xa5, 0xde, 0x80, 0xbd,
  0x0b, 0xd8, 0x02, 0xbe, 0x13, 0x4f, 0xf2, 0x3d, 0xf3, 0xf6, 0x4d, 0x3e,
  0x87, 0xfa, 0xd6, 0xbc, 0x1f, 0xfe, 0x65, 0xbd, 0x29, 0xf0, 0x28, 0x3c,
  0xc1, 0x79, 0x65, 0x3e, 0x37, 0x47, 0x38, 0x3d, 0xbc, 0xea, 0xd4, 0xbd,
  0x5e, 0x2d, 0x61, 0x3e, 0xe3, 0xe9, 0x16, 0xbc, 0xbd, 0xc8, 0x3b, 0xbd,
  0x7e, 0xf4, 0x4f, 0xbd, 0xb0, 0x29, 0xf3, 0x3d, 0xc6, 0x4b, 0xe3, 0xbd,
  0x29, 0xcc, 0x15, 0xbe, 0xd9, 0xa9, 0xc9, 0x3d, 0x9e, 0xde, 0xc3, 0x3d,
  0x39, 0xbb, 0x4c, 0xbd, 0xb0, 0x94, 0xf5, 0xbd, 0xcb, 0x19, 0xd8, 0xbd,
  0x71, 0x7e, 0x74, 0xbd, 0x66, 0xfb, 0x39, 0xbc, 0xa1, 0x41, 0x56, 0xbd,
  0x9f, 0x8c, 0xf8, 0x3d, 0xd5, 0x61, 0x2d, 0x3e, 0xb9, 0xec, 0x1a, 0xbc,
  0xf9, 0x11, 0x5b, 0xbd, 0x18, 0x36, 0x42, 0x3e, 0x15, 0x0a, 0x99, 0x3d,
  0x49, 0xec, 0x35, 0x3e, 0x8d, 0x76, 0x1b, 0x3d, 0xf3, 0x54, 0x62, 0x3e,
  0xe7, 0x2c, 0x0f, 0xbd, 0x49, 0xed, 0x71, 0x3d, 0x9d, 0x28, 0x2d, 0x3e,
  0x7d, 0x75, 0x51, 0x3e, 0xea, 0x2a, 0x26, 0xbd, 0xa2, 0xb5, 0xe7, 0xbd,
  0xb1, 0x5d, 0x0f, 0x3e, 0x11, 0x08, 0x14, 0xbd, 0x08, 0xb1, 0x2e, 0x3c,
  0x25, 0x4a, 0xae, 0x3d, 0x42, 0x87, 0x04, 0x3d, 0xc4, 0x99, 0xb7, 0xbd,
  0x5a, 0x3f, 0x9b, 0x37, 0x26, 0xd5, 0x6e, 0x3d, 0x06, 0x4b, 0x3d, 0x3e,
  0xc0, 0xa6, 0x16, 0x3d, 0xca, 0xc6, 0x41, 0xbd, 0x39, 0xd6, 0x0d, 0xbe,
  0x7c, 0xb1, 0xea, 0x3d, 0x1f, 0x08, 0x06, 0xbe, 0xb7, 0xa8, 0x66, 0x3d,
  0xbb, 0x7d, 0xa3, 0xbd, 0x42, 0x3c, 0x8e, 0xbc, 0x5f, 0xf5, 0x38, 0x3e,
  0xd1, 0xe5, 0x82, 0x3d, 0x29, 0xf0, 0x1d, 0x3e, 0xd5, 0x21, 0xb3, 0xbd,
  0x1a, 0xe8, 0x37, 0xbd, 0x2d, 0xf5, 0x4d, 0x3e, 0xdf, 0x4f, 0xc0, 0x3d,
  0x22, 0xaf, 0x85, 0xbc, 0x20, 0xf7, 0x5f, 0xbd, 0x91, 0x81, 0x3f, 0xbd,
  0x62, 0x63, 0x06, 0x3e, 0x63, 0xe5, 0x61, 0xbc, 0x5a, 0x2d, 0x61, 0xbd,
  0x2b, 0x41, 0xc5, 0x3d, 0x5d, 0x7c, 0x8b, 0x3c, 0x91, 0x82, 0xce, 0x3c,
  0x27, 0x56, 0xf0, 0x3d, 0xd1, 0x67, 0xdb, 0xbc, 0xd8, 0xef, 0xbd, 0x3d,
  0x2d, 0x79, 0x7d, 0xbc, 0x49, 0x02, 0x22, 0xbe, 0xf5, 0xea, 0x80, 0xbd,
  0x5c, 0x38, 0xaa, 0xbc, 0x38, 0xd3, 0xda, 0x3d, 0x60, 0xc6, 0x62, 0x3d,
  0xa2, 0x1d, 0xd7, 0x3c, 0x2d, 0x6a, 0xf6, 0xbd, 0x5d, 0x65, 0xed, 0xbd,
  0x3e, 0x6f, 0xcb, 0x3c, 0x9a, 0xa9, 0x59, 0x3e, 0x44, 0x4d, 0x9e, 0x3d,
  0xbe, 0xf1, 0x0d, 0x3e, 0xcb, 0x33, 0xaa, 0x3d, 0xc1, 0xf8, 0x9e, 0x3d,
  0xbe, 0x64, 0xce, 0xbb, 0x2e, 0x60, 0xb5, 0x3c, 0xd8, 0x23, 0x01, 0x3e,
  0x98, 0x25, 0xe8, 0x3d, 0x0e, 0xd2, 0xec, 0xbd, 0x96, 0x19, 0x9c, 0x3a,
  0x58, 0x94, 0x48, 0x3e, 0x9a, 0xb6, 0x47, 0x3e, 0xeb, 0x82, 0x47, 0x3e,
  0x6a, 0x63, 0xfd, 0x3d, 0xc2, 0x03, 0xc4, 0x3d, 0xd9, 0x38, 0x83, 0xbd,
  0x59, 0x96, 0x83, 0x3d, 0xc6, 0x2e, 0x85, 0x3d, 0x3f, 0x3b, 0x3a, 0x3e,
  0x2f, 0x32, 0xd0, 0x3d, 0x21, 0x38, 0xa6, 0xbd, 0xc0, 0x86, 0xf6, 0x3d,
  0x6a, 0xe3, 0xbc, 0xbc, 0x33, 0x54, 0x63, 0x3e, 0xde, 0x94, 0xcd, 0xbd,
  0xe1, 0xb8, 0x87, 0x3d, 0x7b, 0x85, 0xe2, 0x3b, 0xb7, 0x9d, 0x21, 0x3d,
  0x1c, 0xa9, 0x22, 0xbe, 0xa5, 0x90, 0x0d, 0xbd, 0x6b, 0x29, 0x1a, 0xbe,
  0xbd, 0x2e, 0x00, 0x3e, 0xbc, 0x72, 0xc0, 0x3d, 0x2e, 0x13, 0x04, 0xbe,
  0x60, 0xb5, 0x09, 0xbe, 0xae, 0x4f, 0x88, 0xbd, 0x06, 0x5b, 0xd5, 0x39,
  0x5c, 0x03, 0x12, 0x3e, 0x68, 0xec, 0x59, 0x3e, 0x14, 0xc4, 0x23, 0xbd,
  0xe6, 0x92, 0x7d, 0xbd, 0xf6, 0x20, 0xbd, 0x3d, 0xb6, 0x13, 0xe9, 0x3d,
  0x6f, 0x47, 0x88, 0x3d, 0xd5, 0xc8, 0xe4, 0xba, 0x9e, 0xa8, 0x96, 0x3d,
  0x3e, 0x55, 0x35, 0x3e, 0x9b, 0xb6, 0x29, 0x3d, 0x9c, 0xf1, 0xf9, 0x3d,
  0xdc, 0xdb, 0xa4, 0xbd, 0xb3, 0x7a, 0x14, 0xbe, 0xed, 0x8c, 0xf0, 0xbb,
  0xa0, 0xb2, 0x9e, 0xbd, 0x72, 0xaa, 0xad, 0x3d, 0x28, 0x72, 0xbe, 0xbb,
  0xd4, 0x06, 0x43, 0xbd, 0x5f, 0xa5, 0x44, 0xbd, 0x7d, 0xe0, 0x67, 0xbe,
  0x60, 0x54, 0x32, 0xbe, 0xee, 0x86, 0x04, 0xbe, 0x17, 0xc7, 0x90, 0xbd,
  0xb7, 0x1c, 0xf8, 0x3d, 0x62, 0x25, 0xd9, 0xbd, 0xf5, 0x63, 0x18, 0xbd,
  0xf1, 0x1d, 0x89, 0xbd, 0xc9, 0x72, 0x66, 0x3d, 0x2c, 0x55, 0x19, 0x3e,
  0xb3, 0xfb, 0x1a, 0x3d, 0x59, 0x89, 0xe9, 0xbc, 0x22, 0x5d, 0xd4, 0xbd,
  0x52, 0x67, 0x02, 0x3e, 0x24, 0x51, 0xc6, 0xbc, 0xfa, 0x10, 0x3b, 0x3d,
  0x3f, 0x4b, 0x7b, 0xbd, 0x35, 0x1c, 0x1f, 0xbe, 0xf2, 0x6a, 0xb1, 0x3d,
  0xca, 0xe5, 0xfb, 0xba, 0x8c, 0xdd, 0x1b, 0x3e, 0x5d, 0xb6, 0x14, 0xbd,
  0x6b, 0xd1, 0x18, 0x3d, 0x51, 0x0b, 0x52, 0xbe, 0x0a, 0xc4, 0x34, 0x3e,
  0xd3, 0xd7, 0xdb, 0xbd, 0x31, 0x8e, 0xcd, 0x3b, 0x65, 0xb2, 0x9f, 0x3d,
  0x2c, 0x71, 0xc3, 0xbd, 0x6c, 0xa7, 0x1a, 0xbd, 0xc1, 0x86, 0x70, 0x3c,
  0xf6, 0xb4, 0x0e, 0xbe, 0x24, 0x0a, 0x92, 0x3d, 0x26, 0xb9, 0x01, 0xbd,
  0x32, 0xed, 0x8f, 0xbd, 0xf0, 0x65, 0x92, 0x3d, 0x9a, 0x87, 0x15, 0x3e,
  0x8c, 0x80, 0x18, 0x3e, 0xab, 0x3d, 0x20, 0x3e, 0xef, 0x2e, 0x02, 0xbe,
  0x9e, 0x95, 0x16, 0xbe, 0x1e, 0x43, 0x2b, 0xbc, 0x94, 0x6c, 0x13, 0xbd,
  0x00, 0x3f, 0xbb, 0x3c, 0x96, 0xfb, 0xad, 0xbd, 0xf1, 0x64, 0x2c, 0x3d,
  0xc2, 0x26, 0x07, 0xbe, 0x5d, 0xcf, 0x9e, 0xbd, 0x0b, 0xa1, 0x28, 0x3e,
  0xa7, 0x22, 0x62, 0x3d, 0xb2, 0x4a, 0xe0, 0xbc, 0x4c, 0x25, 0x08, 0x3e,
  0x17, 0x74, 0x5b, 0xbd, 0x5d, 0x27, 0x77, 0xbc, 0x91, 0xd4, 0xd2, 0xbd,
  0x50, 0xf8, 0x2b, 0xbd, 0x85, 0xa7, 0x43, 0xbc, 0xc1, 0xf4, 0x80, 0x3d,
  0x24, 0x5e, 0x4d, 0xbe, 0x4f, 0x21, 0x93, 0xbd, 0xd1, 0xcb, 0xa7, 0x3d,
  0xd9, 0x1c, 0x16, 0xbe, 0x0c, 0x90, 0xf0, 0xbd, 0xf2, 0xe6, 0x15, 0x3d,
  0x53, 0xa1, 0x58, 0xbd, 0x14, 0x4f, 0x9f, 0x3d, 0x84, 0xbf, 0xc4, 0x3d,
  0xf1, 0x48, 0x2f, 0xbe, 0x4a, 0x73, 0x2f, 0xbd, 0x9f, 0x6a, 0x8d, 0x3c,
  0x13, 0xaa, 0xe2, 0xbc, 0x5f, 0x15, 0x38, 0x3d, 0xa7, 0xae, 0x01, 0x3e,
  0xa0, 0x1a, 0xee, 0xbd, 0xff, 0x21, 0x38, 0x3d, 0xb7, 0xf3, 0x74, 0x3c,
  0xf9, 0x21, 0x4a, 0xbe, 0x03, 0xdd, 0xfb, 0x3d, 0xbe, 0x4d, 0xc4, 0x3d,
  0x9c, 0x4a, 0x61, 0x3d, 0x37, 0x61, 0xaa, 0xbd, 0xd6, 0x2e, 0x4a, 0x3e,
  0xc7, 0x18, 0x03, 0x3e, 0x22, 0xde, 0xb2, 0x3c, 0x34, 0x28, 0x6f, 0x3e,
  0xfb, 0x30, 0x40, 0xbe, 0xfe, 0xba, 0xc3, 0xbd, 0xed, 0x3c, 0xd1, 0x3d,
  0xee, 0xd7, 0x35, 0x3d, 0x94, 0xd5, 0xff, 0xbd, 0x5e, 0xf8, 0x98, 0x3d,
  0x5b, 0x08, 0xdf, 0xbd, 0x94, 0xb0, 0xa1, 0xbd, 0xff, 0xe3, 0x23, 0xbe,
  0xe0, 0x48, 0xb5, 0xbd, 0x31, 0x5d, 0x3b, 0x3e, 0xc4, 0x22, 0xa1, 0x3c,
  0xdb, 0xde, 0x06, 0x3e, 0x19, 0xe2, 0xaa, 0xbd, 0x14, 0x17, 0x00, 0x3c,
  0x3a, 0xc4, 0x6f, 0xbd, 0xd0, 0x86, 0x95, 0x3d, 0x30, 0x7e, 0xf6, 0x3d,
  0xc0, 0x35, 0x0f, 0x3e, 0x53, 0xa3, 0x4f, 0x3d, 0xe1, 0x65, 0x2a, 0xbe,
  0x8c, 0x59, 0xb9, 0x3d, 0x83, 0x3e, 0x5f, 0x3e, 0x11, 0x4b, 0x2d, 0x3e,
  0x88, 0xee, 0xc5, 0x3d, 0xee, 0xd3, 0x69, 0x3c, 0xd8, 0x20, 0xee, 0x3d,
  0x21, 0xfc, 0x64, 0x3d, 0x8f, 0xe1, 0x50, 0x3e, 0xec, 0x17, 0x21, 0x3e,
  0x14, 0x08, 0x1b, 0xbd, 0xfa, 0xb9, 0x22, 0xbe, 0x2b, 0x93, 0x35, 0xbd,
  0x14, 0x21, 0x30, 0xbd, 0x9e, 0x83, 0x05, 0xbe, 0x58, 0xe8, 0x1f, 0x3d,
  0x20, 0x94, 0xa3, 0xbc, 0x0e, 0x5b, 0x16, 0x3e, 0xc7, 0xff, 0x2f, 0xbe,
  0x91, 0xe3, 0x31, 0xbc, 0x70, 0x8f, 0x02, 0x3e, 0xb7, 0xe7, 0xab, 0x3d,
  0x17, 0x46, 0xa0, 0xbc, 0x59, 0x8c, 0x60, 0xbe, 0x64, 0x00, 0x69, 0xbe,
  0xb8, 0xbb, 0xbc, 0xbd, 0x84, 0xce, 0x0e, 0xbe, 0xff, 0x5e, 0xf7, 0xbc,
  0x61, 0x60, 0x3f, 0xbe, 0x6a, 0xb9, 0xf2, 0x3d, 0x5a, 0xcd, 0x76, 0x3c,
  0xfb, 0x0d, 0x15, 0xbe, 0xe2, 0xd6, 0xa1, 0xbd, 0x46, 0xd9, 0xd0, 0x3d,
  0xcf, 0x4d, 0x23, 0x3d, 0x8c, 0x14, 0xd2, 0x3b, 0x60, 0x60, 0x31, 0xbc,
  0x5f, 0x72, 0xfd, 0x3d, 0x30, 0x29, 0xfa, 0xbd, 0x83, 0xb4, 0x3a, 0xbe,
  0x05, 0x67, 0x57, 0x3d, 0x4b, 0x70, 0x88, 0x3d, 0x93, 0x2a, 0x33, 0xbe,
  0xf5, 0xcb, 0x0f, 0x3e, 0xfc, 0xee, 0xd2, 0x3d, 0xa7, 0xa4, 0xba, 0xbd,
  0x08, 0x10, 0x95, 0x3d, 0xd4, 0x31, 0x45, 0x3d, 0x5e, 0xc2, 0x66, 0x3b,
  0xf1, 0x56, 0x92, 0xbd, 0x9f, 0x05, 0x26, 0x3e, 0x8d, 0xdb, 0x2a, 0x3b,
  0x59, 0x4f, 0x46, 0xbe, 0x03, 0x28, 0xe7, 0x3c, 0x33, 0xa7, 0xa0, 0xbc,
  0x5a, 0x12, 0x16, 0x3e, 0xee, 0x89, 0x8f, 0x3d, 0x43, 0xfa, 0x12, 0xbd,
  0x4a, 0x37, 0xcf, 0x3c, 0xd8, 0xba, 0xe1, 0xbd, 0xf1, 0xd8, 0x55, 0xbd,
  0xe3, 0x1f, 0x29, 0x3e, 0x7a, 0xa7, 0x9f, 0x3d, 0x53, 0xb8, 0x13, 0x3e,
  0xb8, 0x63, 0x87, 0x3c, 0xca, 0x07, 0xc8, 0xbd, 0x76, 0xca, 0xac, 0x3d,
  0x78, 0x04, 0xc3, 0x3d, 0x90, 0x5b, 0x2d, 0x3d, 0x37, 0x44, 0x30, 0xbe,
  0xb1, 0x0f, 0x52, 0x3e, 0xaf, 0x5b, 0x0c, 0xbe, 0xbd, 0xb1, 0x37, 0x3d,
  0xaa, 0x8f, 0xba, 0x3d, 0x2a, 0xb9, 0x1d, 0x3e, 0x9c, 0x1a, 0xb2, 0x3b,
  0xa3, 0x53, 0x44, 0xbd, 0x03, 0x05, 0xb7, 0x3d, 0xa0, 0xf4, 0xd9, 0x3d,
  0x06, 0x2c, 0x5a, 0x3e, 0x34, 0xbf, 0x8e, 0xbd, 0x90, 0xee, 0x50, 0xbe,
  0x17, 0x41, 0xb4, 0xbc, 0xd1, 0x26, 0x25, 0xbe, 0x10, 0x24, 0x1a, 0x3d,
  0xac, 0x23, 0x3c, 0xbd, 0xa9, 0xd2, 0x41, 0x3e, 0xb6, 0x59, 0xc6, 0xbd,
  0x03, 0xf8, 0x58, 0x3e, 0x60, 0xe0, 0x92, 0xbd, 0xc2, 0x0f, 0x3c, 0xbc,
  0x76, 0x03, 0x6d, 0x3e, 0xd2, 0x19, 0x54, 0x3e, 0x99, 0xf3, 0xbd, 0xbd,
  0x4d, 0x8a, 0x58, 0x3c, 0x44, 0xd3, 0xdf, 0xbc, 0xe3, 0xa2, 0x51, 0xbd,
  0x2b, 0x94, 0x0d, 0x3d, 0xd7, 0xdd, 0xae, 0x3c, 0xd1, 0x28, 0x76, 0x3d,
  0x3c, 0x9a, 0xdd, 0x3d, 0xd1, 0x37, 0x8a, 0xbb, 0x98, 0x87, 0x07, 0x3e,
  0xba, 0xfe, 0x86, 0xbd, 0x09, 0x60, 0x76, 0x3d, 0x4c, 0x28, 0xc7, 0x3d,
  0xfc, 0xb9, 0x54, 0xbd, 0x63, 0x5d, 0xa8, 0x3c, 0x70, 0xe7, 0xe1, 0x3d,
  0xd4, 0x34, 0x2a, 0xbd, 0xdc, 0x6c, 0xac, 0xbc, 0xc4, 0xb3, 0xfa, 0xbd,
  0x88, 0xd3, 0x04, 0xbe, 0x46, 0x42, 0x98, 0xbd, 0xc0, 0x96, 0x25, 0x3e,
  0x48, 0x61, 0xe1, 0x3d, 0xd1, 0x4d, 0x32, 0xbd, 0xbb, 0xe5, 0xb7, 0xbc,
  0xe4, 0x0a, 0xc3, 0xba, 0xc0, 0x09, 0xb9, 0x3c, 0xe2, 0x16, 0x7c, 0x3c,
  0x1a, 0xcf, 0xc9, 0xbd, 0x0e, 0x0e, 0x49, 0xbd, 0xe7, 0xf2, 0x04, 0xbe,
  0x77, 0x39, 0x62, 0x3d, 0x99, 0x95, 0xd5, 0xbd, 0xc4, 0x7a, 0x14, 0x3e,
  0x7d, 0xc6, 0x41, 0xbd, 0x67, 0xce, 0x00, 0x3e, 0x16, 0x5b, 0xa3, 0xbd,
  0xc2, 0x9d, 0x51, 0x3e, 0xf0, 0x84, 0xbb, 0x3d, 0xda, 0xea, 0x02, 0xbe,
  0x9c, 0xdb, 0xbf, 0xbd, 0xb0, 0x59, 0xa0, 0x3d, 0xe0, 0x64, 0xc7, 0x3d,
  0xd4, 0x15, 0x85, 0xbd, 0xeb, 0x66, 0xa8, 0x3a, 0xed, 0xe4, 0x24, 0xbe,
  0x62, 0x51, 0x6d, 0xbc, 0x2a, 0xcf, 0x92, 0x3d, 0x5b, 0x6a, 0x5d, 0x3d,
  0xd1, 0x80, 0x48, 0x3c, 0xaf, 0x84, 0xc9, 0x3d, 0x06, 0x57, 0x95, 0x3d,
  0x67, 0x7d, 0xb9, 0x3a, 0xc3, 0xb6, 0xd3, 0x3d, 0xf8, 0x07, 0x1c, 0xbe,
  0xde, 0x9f, 0x61, 0xbc, 0x50, 0x69, 0xdf, 0x3d, 0x0b, 0x69, 0x87, 0xbd,
  0x0f, 0x37, 0xd2, 0x3d, 0x20, 0x61, 0x53, 0x3e, 0x53, 0x7d, 0x0a, 0x3d,
  0xb1, 0x52, 0xaf, 0x3d, 0xfb, 0x5d, 0xbf, 0xbd, 0xe1, 0x46, 0x21, 0xbe,
  0x34, 0xe8, 0xdb, 0x3d, 0x0e, 0x83, 0x00, 0xbd, 0x48, 0x0a, 0x45, 0x3c,
  0x52, 0x25, 0xbf, 0x3d, 0x0f, 0x50, 0xc6, 0x3d, 0xc4, 0x8c, 0xf4, 0x39,
  0x7a, 0x38, 0x3b, 0x3e, 0x6e, 0x2c, 0xa6, 0x3d, 0x2c, 0xed, 0x84, 0x3b,
  0x2e, 0x64, 0x24, 0xbd, 0x17, 0xa3, 0x58, 0x3c, 0xfe, 0x87, 0x08, 0xbe,
  0x73, 0x53, 0x01, 0x3d, 0x3e, 0xe3, 0x36, 0xbe, 0xf9, 0x77, 0x87, 0x3c,
  0x86, 0x7e, 0x12, 0x3d, 0xa2, 0x67, 0xb3, 0x3d, 0x61, 0x34, 0x3c, 0xb9,
  0xaa, 0x95, 0x2f, 0x3e, 0xa4, 0xa9, 0xad, 0x3d, 0xe5, 0xc2, 0x88, 0xbd,
  0xfb, 0x3f, 0x12, 0xbe, 0xb5, 0xc0, 0xdd, 0x3d, 0xb6, 0x6e, 0x0a, 0xbe,
  0x3b, 0x89, 0xd6, 0xbd, 0x0d, 0x4d, 0x7f, 0x3c, 0xf6, 0x03, 0x67, 0xbd,
  0xa2, 0xda, 0x2e, 0xbb, 0x2d, 0xe1, 0x4e, 0x3b, 0x87, 0xa2, 0xa0, 0x3b,
  0xec, 0x68, 0xd9, 0x3d, 0x46, 0xe6, 0x3e, 0xbe, 0xd0, 0x82, 0x1e, 0xbe,
  0xd7, 0xc7, 0x18, 0x3e, 0x0c, 0xd8, 0x34, 0x3e, 0x94, 0x58, 0xee, 0xbc,
  0x04, 0x97, 0x14, 0x3e, 0xa3, 0xe8, 0xf8, 0x3b, 0x10, 0x20, 0xcf, 0x3c,
  0xcd, 0x44, 0x42, 0xbc, 0x53, 0xcb, 0xb8, 0x3b, 0xa3, 0x25, 0x0d, 0xbe,
  0xce, 0x34, 0xe9, 0x3c, 0x48, 0xfa, 0xff, 0xbd, 0x6d, 0xe9, 0x3e, 0x3d,
  0x06, 0x67, 0x8f, 0x3d, 0x29, 0x86, 0x35, 0xbe, 0x81, 0xf2, 0x3f, 0xbe,
  0x36, 0xb7, 0x30, 0xbd, 0x63, 0x53, 0xe2, 0xbd, 0x23, 0x97, 0x14, 0xbc,
  0xe9, 0xf2, 0x41, 0xbd, 0xed, 0xa3, 0x64, 0xbe, 0x7a, 0x09, 0xd0, 0x3d,
  0x97, 0x53, 0xf2, 0xbd, 0xcf, 0xe9, 0x9f, 0x3d, 0x0b, 0x97, 0xd8, 0xbd,
  0x27, 0x54, 0xf3, 0xbc, 0x41, 0x04, 0x9a, 0x3d, 0x38, 0xfd, 0x19, 0x3e,
  0x9a, 0xeb, 0x12, 0x3d, 0x6b, 0xbd, 0x2b, 0xbe, 0x79, 0x0b, 0xc5, 0xbd,
  0x26, 0x9a, 0x21, 0xbd, 0x9a, 0x57, 0xff, 0xbd, 0x49, 0xa6, 0x2c, 0x3c,
  0x93, 0xc1, 0xc8, 0xbc, 0xe4, 0x9f, 0x67, 0xbc, 0xef, 0x4c, 0x21, 0x3e,
  0xc9, 0x19, 0x72, 0x3e, 0xe6, 0x91, 0x4c, 0x3d, 0xf3, 0x44, 0x0b, 0xbe,
  0x31, 0x25, 0x37, 0xbd, 0xe8, 0x71, 0x12, 0x3e, 0x9e, 0x4d, 0xf6, 0x3d,
  0xce, 0x08, 0xa2, 0xbd, 0x50, 0xa1, 0xbe, 0xbd, 0x02, 0x3c, 0xa6, 0x3d,
  0x61, 0x3f, 0xa5, 0xbc, 0x72, 0x3d, 0xe7, 0x3d, 0xd3, 0x98, 0x55, 0x3b,
  0xc8, 0xf7, 0x9c, 0xbc, 0x9a, 0xbb, 0x01, 0x3e, 0x58, 0x31, 0xf9, 0xbd,
  0x77, 0x10, 0x84, 0xbd, 0x5b, 0x38, 0x30, 0xbe, 0xaf, 0xb8, 0xdf, 0x3d,
  0x2f, 0xc9, 0x0d, 0x3e, 0x70, 0xa3, 0xd7, 0xbc, 0x6d, 0x6d, 0xfe, 0xbd,
  0x69, 0x57, 0x8d, 0xbc, 0x57, 0x41, 0xe7, 0x3c, 0x48, 0x5c, 0xdb, 0xbd,
  0x9e, 0x9c, 0x08, 0xbe, 0x6c, 0xa0, 0x15, 0x3e, 0xc1, 0xcb, 0x25, 0x3d,
  0xc5, 0x8e, 0xfb, 0x3d, 0x54, 0x8e, 0x8a, 0x3d, 0x6a, 0xc1, 0xce, 0x3d,
  0x58, 0xfe, 0x61, 0x3e, 0x32, 0x79, 0x8c, 0xbd, 0x61, 0x57, 0xc7, 0x3c,
  0xe6, 0x16, 0xcf, 0x3c, 0x5f, 0x0d, 0x2a, 0x3e, 0x59, 0xf7, 0x45, 0x3c,
  0xe0, 0x08, 0xf8, 0xbd, 0x62, 0xf8, 0xf5, 0x3d, 0x49, 0x59, 0x25, 0x3e,
  0xed, 0x2e, 0x13, 0xbe, 0xdc, 0xca, 0xa6, 0xbd, 0xbe, 0x00, 0x89, 0x3d,
  0x30, 0x5a, 0xae, 0xbd, 0xc4, 0x9f, 0x1f, 0x3e, 0x64, 0x13, 0x76, 0x3d,
  0xa5, 0x32, 0x15, 0xbe, 0x23, 0x50, 0xcc, 0xbd, 0xe5, 0x47, 0x0a, 0xbc,
  0xa0, 0x47, 0x25, 0xbd, 0x88, 0x15, 0x1e, 0x3e, 0xd7, 0x3f, 0x13, 0x3c,
  0xfe, 0x66, 0x0a, 0x3e, 0x2d, 0x9f, 0xd4, 0x3d, 0x87, 0x9c, 0x1f, 0xbe,
  0x38, 0x57, 0xe1, 0x3d, 0x1e, 0xf4, 0xd5, 0x3c, 0x1c, 0xd3, 0x55, 0xbe,
  0x7e, 0x08, 0xae, 0x3d, 0xdc, 0xfc, 0x40, 0xbe, 0x00, 0x41, 0xa5, 0x3c,
  0x32, 0xb9, 0x60, 0x3d, 0x49, 0xdd, 0xfb, 0xbd, 0xa5, 0xef, 0x51, 0x3e,
  0x70, 0xca, 0xea, 0x3c, 0xf1, 0xa5, 0xf3, 0x3c, 0x36, 0x04, 0xa1, 0xbc,
  0x0d, 0x5b, 0xa0, 0xbd, 0x6b, 0xf9, 0xbe, 0x3d, 0xb1, 0x70, 0x69, 0x3d,
  0x0c, 0x35, 0xf2, 0xbd, 0x52, 0x4a, 0x3b, 0xbd, 0x00, 0x67, 0x40, 0xbe,
  0xb9, 0x21, 0x8e, 0xbd, 0xf5, 0xd9, 0x38, 0xbd, 0x23, 0x10, 0xa5, 0x3d,
  0xaa, 0x17, 0x1a, 0xbd, 0x95, 0xb9, 0xca, 0xbd, 0xf5, 0xfe, 0x54, 0x3c,
  0xc8, 0xbf, 0x7b, 0x3d, 0x82, 0xd2, 0xb7, 0xbc, 0xec, 0x91, 0x0e, 0x3c,
  0x94, 0xcf, 0xff, 0x3d, 0xc9, 0xf2, 0xa3, 0x3d, 0x9a, 0x91, 0xaa, 0xbd,
  0x01, 0x42, 0x9e, 0xbe, 0x81, 0x09, 0x2f, 0xbe, 0x62, 0xe9, 0x1b, 0x3d,
  0x60, 0x89, 0x96, 0x3d, 0x8e, 0x72, 0x1b, 0xbe, 0x08, 0xd6, 0xc3, 0x3d,
  0x45, 0x53, 0x2a, 0xbe, 0x4d, 0xf0, 0x59, 0x3e, 0xca, 0x1c, 0x98, 0xbb,
  0x4d, 0x97, 0x43, 0x3d, 0x92, 0x9a, 0xc7, 0xbd, 0x4d, 0xd5, 0x77, 0xbd,
  0xb8, 0xe2, 0xde, 0xbd, 0xb1, 0x59, 0xec, 0x3d, 0x1b, 0x45, 0x55, 0xbd,
  0x15, 0x5b, 0xbe, 0xbd, 0x0c, 0xf5, 0xf6, 0x3d, 0x80, 0x47, 0x3e, 0x3b,
  0x91, 0x78, 0xa4, 0xbd, 0x7c, 0xd9, 0x1f, 0x3e, 0x2b, 0x38, 0xd6, 0x3d,
  0xe1, 0xc8, 0x66, 0xbe, 0xd1, 0x54, 0x33, 0xbc, 0x8c, 0x7c, 0xae, 0x3c,
  0x5f, 0x2d, 0xcd, 0xbc, 0xfd, 0xf5, 0x72, 0xbd, 0xf6, 0x30, 0xb0, 0xbd,
  0xe4, 0x0f, 0x56, 0xbe, 0xc5, 0xec, 0x8f, 0x3a, 0xce, 0x23, 0x47, 0xbd,
  0x13, 0x76, 0x30, 0x3d, 0x7c, 0x5e, 0x83, 0x3d, 0xa4, 0x84, 0x4b, 0x3e,
  0xf2, 0xc4, 0x07, 0xbd, 0xbf, 0xab, 0x94, 0x3d, 0x60, 0x11, 0xdd, 0xbd,
  0x4e, 0x01, 0x5a, 0x3c, 0x4b, 0x1d, 0x43, 0xbe, 0x86, 0x6d, 0xed, 0x3d,
  0x95, 0xe8, 0x5b, 0xbe, 0xae, 0xc2, 0x09, 0xbe, 0xf2, 0x63, 0x30, 0xbe,
  0xd3, 0x59, 0x1a, 0x3d, 0xa6, 0x1b, 0x5e, 0xbe, 0x7a, 0xfb, 0xb4, 0x3d,
  0x92, 0xe0, 0x8f, 0xbd, 0x77, 0xd3, 0x68, 0x3c, 0xa0, 0xa8, 0xd0, 0x3d,
  0x1b, 0x0e, 0x2b, 0x3e, 0xad, 0x43, 0xbe, 0x3b, 0xa8, 0xc5, 0x08, 0x3e,
  0x34, 0x55, 0x0a, 0x3e, 0x42, 0xe7, 0x07, 0xbe, 0x13, 0x7a, 0xb9, 0x3d,
  0xe1, 0x81, 0xa2, 0x3d, 0xf6, 0x2f, 0x88, 0x3d, 0x2b, 0xf4, 0xfb, 0xbc,
  0x10, 0x07, 0x28, 0x3e, 0xfa, 0x10, 0x64, 0xbe, 0x36, 0x56, 0x3b, 0x3e,
  0x59, 0x60, 0x17, 0xbd, 0x34, 0x92, 0x0d, 0xbe, 0xff, 0x57, 0x4a, 0x3d,
  0x48, 0xca, 0x2e, 0xbe, 0x4f, 0xbb, 0xe6, 0xbc, 0xd8, 0x80, 0xd9, 0xbd,
  0x17, 0x52, 0xb8, 0x3d, 0x90, 0x50, 0x09, 0xbe, 0x3d, 0x80, 0x5d, 0xbe,
  0xa7, 0x63, 0x21, 0xbe, 0x92, 0xa4, 0xe2, 0x3c, 0x1d, 0x3f, 0x81, 0x3b,
  0xb9, 0xab, 0x7b, 0x3d, 0x9c, 0xec, 0xe3, 0x3d, 0x18, 0xd2, 0xf0, 0xbd,
  0x5e, 0x86, 0x0f, 0xbe, 0x8c, 0xfb, 0x46, 0x3e, 0xd5, 0x73, 0xe1, 0x3d,
  0x93, 0xa3, 0x28, 0xbe, 0x55, 0x45, 0xb1, 0x3d, 0x33, 0x8b, 0x77, 0x3d,
  0xc8, 0xac, 0x27, 0xbe, 0x39, 0x09, 0x30, 0xbe, 0x4c, 0x7d, 0x4b, 0xbd,
  0xaf, 0x18, 0xb7, 0x3d, 0x48, 0x52, 0x8d, 0xbd, 0x6f, 0x24, 0xef, 0x3d,
  0x9e, 0x4d, 0x51, 0xbd, 0x3e, 0x29, 0x61, 0x3d, 0xf9, 0x37, 0x14, 0xbe,
  0x05, 0x4e, 0x8d, 0xbb, 0xb7, 0xd7, 0x27, 0x3e, 0x4f, 0x9a, 0x06, 0x3b,
  0x2f, 0xb1, 0x6f, 0x3d, 0x09, 0xd1, 0x0e, 0x3d, 0x8d, 0x55, 0x1f, 0xbe,
  0x0e, 0x32, 0x83, 0x3c, 0x00, 0xe0, 0xe8, 0x3a, 0x12, 0xf0, 0x14, 0xbd,
  0x20, 0x9b, 0x27, 0xbe, 0x8e, 0xbc, 0x55, 0x3d, 0x28, 0x4e, 0xab, 0x3d,
  0x77, 0x78, 0x15, 0xbd, 0x72, 0xc0, 0x71, 0xbb, 0xab, 0xd9, 0x9d, 0x3a,
  0x27, 0xc1, 0x2b, 0xbd, 0xcc, 0xad, 0x37, 0x3d, 0xd6, 0xe8, 0x76, 0x3d,
  0x2f, 0xee, 0x7f, 0xbd, 0xbf, 0x19, 0x28, 0xbe, 0xd2, 0x2a, 0xa3, 0xbc,
  0xae, 0x8b, 0x48, 0xbe, 0x38, 0x4d, 0x0d, 0x3e, 0x6d, 0xf7, 0x08, 0xbe,
  0xd0, 0xb1, 0xf2, 0x3d, 0xa7, 0xb0, 0x84, 0xbd, 0x7f, 0x40, 0x81, 0x3d,
  0x9a, 0x62, 0x88, 0xbc, 0x62, 0x61, 0x42, 0x3e, 0xcf, 0x24, 0x0c, 0x3e,
  0xd0, 0x5e, 0xf0, 0x3c, 0x4e, 0x49, 0x4d, 0xbc, 0xd4, 0x29, 0x93, 0xbd,
  0x0c, 0xe2, 0xf3, 0x3d, 0x09, 0x04, 0x89, 0xbd, 0x7b, 0x52, 0x26, 0x3d,
  0x39, 0x50, 0xfb, 0xbc, 0x47, 0x05, 0xb1, 0xbd, 0xa6, 0x4b, 0x2e, 0xbe,
  0x95, 0x5c, 0x70, 0xba, 0x81, 0x2b, 0x2c, 0x3e, 0xf1, 0xdd, 0x28, 0x3e,
  0x4b, 0xad, 0x59, 0xbe, 0x08, 0x08, 0x4c, 0xbd, 0x76, 0x2d, 0x62, 0xbe,
  0x3e, 0x96, 0x06, 0xbe, 0x5a, 0x74, 0x29, 0x3e, 0x76, 0x55, 0x2a, 0xbd,
  0xd5, 0x45, 0xe1, 0xbd, 0x5a, 0xe6, 0x1c, 0xbe, 0x41, 0x68, 0x57, 0x3d,
  0x24, 0xe5, 0xfa, 0xbd, 0xa5, 0x44, 0xb9, 0x3d, 0xee, 0x89, 0x79, 0x3c,
  0x38, 0x70, 0x07, 0xbe, 0xb6, 0x45, 0xcf, 0xbc, 0x56, 0xaf, 0x74, 0x3d,
  0x06, 0x84, 0xc6, 0x3d, 0x1a, 0x24, 0xcf, 0xbd, 0xf9, 0x09, 0xa1, 0xbd,
  0x27, 0x7b, 0x00, 0xbc, 0x9b, 0xd1, 0x1e, 0x3d, 0xcb, 0x45, 0xbe, 0x3d,
  0x3d, 0xc0, 0x63, 0x3c, 0x72, 0x76, 0x30, 0xbd, 0x54, 0x88, 0x5e, 0x3e,
  0xa6, 0xf9, 0x49, 0xbd, 0x9f, 0xa4, 0xa8, 0x3d, 0x75, 0x80, 0x83, 0x3d,
  0xcd, 0x68, 0x2a, 0x3e, 0xa0, 0x99, 0xa3, 0xbd, 0x0c, 0x82, 0x50, 0x3e,
  0x9c, 0x03, 0x32, 0x3d, 0x23, 0x2c, 0xd6, 0x3d, 0x4f, 0x05, 0x5e, 0xbe,
  0xc2, 0x62, 0xe1, 0x3c, 0x2e, 0xc3, 0xbc, 0x3d, 0x41, 0xbc, 0xa2, 0xbc,
  0xc5, 0x7f, 0xf5, 0xbd, 0xb5, 0xfe, 0x10, 0xbe, 0x46, 0x17, 0x68, 0x3c,
  0xa1, 0x81, 0x31, 0xbe, 0x99, 0xfd, 0x3d, 0x3e, 0x4d, 0xe4, 0x40, 0xbe,
  0xe9, 0x26, 0x19, 0x3e, 0xd6, 0x61, 0x2a, 0xbb, 0xd9, 0x01, 0x06, 0xbe,
  0xe4, 0x5e, 0x37, 0x3e, 0x99, 0x3f, 0x64, 0x3e, 0xeb, 0xfe, 0x1c, 0xbe,
  0xc7, 0x43, 0xd3, 0xbc, 0xb4, 0x7c, 0xab, 0xbc, 0x32, 0xd3, 0x50, 0x3e,
  0xb1, 0x74, 0x37, 0x3e, 0x29, 0x24, 0x97, 0x3d, 0x29, 0xed, 0x20, 0xbe,
  0x5c, 0x87, 0xb9, 0x3d, 0xff, 0xbc, 0x11, 0xbd, 0xaa, 0xd6, 0x21, 0x3d,
  0x13, 0x2f, 0xfd, 0x3d, 0xf7, 0x81, 0xa4, 0xbc, 0xc6, 0xd3, 0x37, 0xbe,
  0x51, 0x63, 0x96, 0x3a, 0x79, 0x9b, 0x9f, 0xbd, 0x84, 0x7f, 0xc5, 0xbd,
  0x5c, 0xb1, 0x2e, 0x3e, 0x5f, 0xf8, 0xe7, 0x3d, 0x8e, 0x09, 0xfe, 0x3d,
  0x30, 0x81, 0x6f, 0x3a, 0x05, 0xa3, 0x0d, 0x3b, 0x6c, 0x18, 0x57, 0xbc,
  0x6a, 0x10, 0x71, 0xbe, 0xa9, 0xde, 0xfc, 0x3d, 0x5b, 0xb1, 0x91, 0x3d,
  0x4b, 0x2a, 0x45, 0xbe, 0x98, 0x05, 0xff, 0x3d, 0x25, 0x37, 0xb6, 0xbc,
  0xa1, 0x05, 0xb5, 0x3c, 0x8f, 0xb5, 0x33, 0x3e, 0x9d, 0xb7, 0xce, 0x3d,
  0x84, 0xb6, 0xbc, 0xbd, 0x53, 0xfa, 0xa3, 0xbd, 0x19, 0x5c, 0xc6, 0xbb,
  0x59, 0x32, 0x72, 0x3d, 0xb1, 0x3a, 0x53, 0x3e, 0xcc, 0x6d, 0xab, 0xbd,
  0x99, 0x84, 0x0f, 0x3e, 0x82, 0xe0, 0xa8, 0xbd, 0x4f, 0xb0, 0x45, 0x3d,
  0x7a, 0x94, 0xb4, 0x3d, 0xfa, 0xe7, 0xce, 0xbc, 0xbe, 0xa2, 0x03, 0xbe,
  0x5b, 0xc8, 0xd5, 0xbd, 0x0b, 0xf1, 0x95, 0xbd, 0x81, 0x99, 0x05, 0xbd,
  0xe6, 0x99, 0xa5, 0x3c, 0x85, 0x3d, 0x44, 0xbc, 0xac, 0x72, 0x83, 0xbd,
  0x4c, 0x47, 0x7b, 0xbd, 0xdf, 0x55, 0xe8, 0x3b, 0x42, 0x21, 0x9a, 0x3d,
  0xdf, 0xb9, 0x10, 0xbe, 0x8f, 0xe8, 0x07, 0xbd, 0x5e, 0xe1, 0x66, 0xbd,
  0x58, 0x22, 0xb3, 0x3d, 0x92, 0x4e, 0x49, 0xbe, 0x78, 0x65, 0xcd, 0xbd,
  0x66, 0xd9, 0xe0, 0x3d, 0x98, 0x30, 0x76, 0x3e, 0x12, 0x62, 0x51, 0x3e,
  0x01, 0xb0, 0x9d, 0xbc, 0xf9, 0x59, 0xa0, 0xbd, 0x56, 0xa6, 0x34, 0x3e,
  0xa4, 0xb6, 0xf8, 0x3c, 0xe5, 0x6f, 0xe1, 0x3d, 0x84, 0xac, 0x1c, 0xbd,
  0xb3, 0xc3, 0xa1, 0x3c, 0x2e, 0x54, 0xa3, 0xbc, 0xaa, 0x9d, 0x40, 0xbe,
  0xb8, 0x06, 0x7a, 0xbd, 0xeb, 0x1d, 0x84, 0xbd, 0xaa, 0x0f, 0xac, 0x3d,
  0x17, 0xf7, 0x04, 0xbe, 0x9f, 0x93, 0x66, 0x3b, 0xbf, 0x9b, 0x79, 0xbe,
  0xba, 0x13, 0x1e, 0xbd, 0xa1, 0x58, 0xeb, 0xbc, 0x96, 0xdd, 0x1c, 0xbb,
  0x73, 0xbd, 0xcc, 0xbc, 0x31, 0x5b, 0xe3, 0xbd, 0x96, 0x5b, 0x54, 0xbe,
  0xbb, 0x96, 0xa8, 0x3d, 0xfe, 0xf0, 0xd0, 0x3d, 0xad, 0x03, 0xfb, 0xbd,
  0x31, 0xba, 0x46, 0xbd, 0xe5, 0x22, 0x01, 0x3e, 0x38, 0x7e, 0xed, 0xbc,
  0x86, 0xbe, 0xfb, 0x3d, 0x49, 0x07, 0x7b, 0xbd, 0x55, 0xd9, 0x33, 0xbe,
  0xcf, 0x85, 0xc5, 0x3d, 0x5a, 0x9b, 0xa4, 0x3d, 0x54, 0xc5, 0x0a, 0x3c,
  0xad, 0x01, 0x21, 0x3d, 0x0c, 0x53, 0x29, 0xbe, 0xf8, 0xe9, 0x0a, 0xbe,
  0x3e, 0x81, 0x28, 0x3d, 0x29, 0x07, 0xde, 0xbd, 0x5f, 0xe9, 0x19, 0xbd,
  0x51, 0xc5, 0x58, 0x3e, 0x60, 0x43, 0xd4, 0xbc, 0x1d, 0xd7, 0x49, 0xbe,
  0x5a, 0xc5, 0x05, 0x3e, 0xa1, 0x88, 0x13, 0x3e, 0xd4, 0xc6, 0xb1, 0xbc,
  0x7c, 0x95, 0xc9, 0xba, 0x0a, 0x47, 0xec, 0xbc, 0x19, 0x19, 0x62, 0x3d,
  0x6e, 0x13, 0xc5, 0xbd, 0x84, 0x9b, 0x2b, 0xbc, 0xbc, 0x35, 0x61, 0x3d,
  0x9f, 0xc2, 0xe6, 0xbd, 0x8f, 0xdf, 0x98, 0x3c, 0x98, 0x4a, 0xe7, 0x3d,
  0xb0, 0x59, 0xbf, 0x3d, 0x2a, 0xb3, 0xd9, 0xbd, 0xc8, 0xd7, 0xd4, 0x3d,
  0x0f, 0x2b, 0xca, 0xbc, 0xa0, 0x1e, 0x66, 0xbb, 0x9e, 0x64, 0x64, 0xbe,
  0x53, 0xe7, 0xc0, 0xbd, 0xc6, 0x1c, 0x9b, 0xbd, 0x2e, 0x34, 0x70, 0xbd,
  0xab, 0x24, 0xb5, 0xbc, 0x8e, 0x8b, 0xcd, 0x3c, 0xc7, 0xcf, 0x63, 0xbe,
  0xc4, 0x52, 0x45, 0xbd, 0xe8, 0x90, 0xd3, 0xbd, 0x31, 0x9b, 0x25, 0xbe,
  0x72, 0x75, 0x67, 0x3d, 0x17, 0xd2, 0x0f, 0x3e, 0x6b, 0x60, 0xa2, 0x3d,
  0x25, 0x4c, 0x1e, 0x3c, 0xd4, 0x48, 0x43, 0x3e, 0x46, 0x55, 0x5c, 0x3d,
  0x17, 0x8c, 0x7b, 0x3e, 0xb8, 0xfd, 0x2e, 0x3e, 0xcb, 0xde, 0x4b, 0xbd,
  0x9e, 0x96, 0x70, 0xbd, 0x01, 0xb2, 0x59, 0xbe, 0x12, 0xd8, 0xab, 0x3d,
  0xec, 0xc3, 0x8f, 0x3d, 0xe4, 0x27, 0xcd, 0xbb, 0x94, 0xf1, 0xaf, 0x3d,
  0x9d, 0x9e, 0xc3, 0x3d, 0xe2, 0x2b, 0xc9, 0x3d, 0x80, 0xe7, 0x27, 0x3e,
  0x13, 0x12, 0x49, 0x3d, 0x63, 0x9c, 0x43, 0xbe, 0x1c, 0xa2, 0x85, 0x3c,
  0xfc, 0x29, 0x3f, 0x3e, 0x4c, 0x10, 0x08, 0xbe, 0x71, 0xba, 0x6e, 0xbe,
  0xa3, 0x27, 0x22, 0x3c, 0x76, 0xf1, 0xff, 0xff, 0x04, 0x00, 0x00, 0x00,
  0x0c, 0x00, 0x00, 0x00, 0x01, 0x00, 0x00, 0x00, 0x05, 0x00, 0x00, 0x00,
  0x0a, 0x00, 0x00, 0x00, 0x8e, 0xf1, 0xff, 0xff, 0x04, 0x00, 0x00, 0x00,
  0x10, 0x00, 0x00, 0x00, 0x01, 0x00, 0x00, 0x00, 0x05, 0x00, 0x00, 0x00,
  0x01, 0x00, 0x00, 0x00, 0x0a, 0x00, 0x00, 0x00, 0xaa, 0xf1, 0xff, 0xff,
  0x04, 0x00, 0x00, 0x00, 0x0c, 0x00, 0x00, 0x00, 0x27, 0x74, 0xe4, 0x3d,
  0x89, 0xf8, 0x25, 0x3c, 0x8c, 0xde, 0xc8, 0xbd, 0x30, 0xf1, 0xff, 0xff,
  0x0c, 0x00, 0x14, 0x00, 0x04, 0x00, 0x08, 0x00, 0x0c, 0x00, 0x10, 0x00,
  0x0c, 0x00, 0x00, 0x00, 0x20, 0x00, 0x00, 0x00, 0x14, 0x00, 0x00, 0x00,
  0x08, 0x00, 0x00, 0x00, 0x8c, 0x09, 0x00, 0x00, 0x01, 0x00, 0x00, 0x00,
  0x1d, 0x00, 0x00, 0x00, 0x01, 0x00, 0x00, 0x00, 0x1a, 0x00, 0x00, 0x00,
  0x1f, 0x00, 0x00, 0x00, 0x1c, 0x05, 0x00, 0x00, 0x8c, 0x04, 0x00, 0x00,
  0x3c, 0x04, 0x00, 0x00, 0x84, 0x07, 0x00, 0x00, 0x00, 0x03, 0x00, 0x00,
  0x28, 0x07, 0x00, 0x00, 0x5c, 0x02, 0x00, 0x00, 0x44, 0x03, 0x00, 0x00,
  0xb0, 0x04, 0x00, 0x00, 0xc4, 0x05, 0x00, 0x00, 0xa0, 0x00, 0x00, 0x00,
  0x80, 0x03, 0x00, 0x00, 0x70, 0x05, 0x00, 0x00, 0xd4, 0x00, 0x00, 0x00,
  0x78, 0x06, 0x00, 0x00, 0xec, 0x07, 0x00, 0x00, 0x3c, 0x00, 0x00, 0x00,
  0x38, 0x08, 0x00, 0x00, 0xe0, 0x01, 0x00, 0x00, 0x8c, 0x07, 0x00, 0x00,
  0x08, 0x05, 0x00, 0x00, 0xa4, 0x03, 0x00, 0x00, 0x80, 0x08, 0x00, 0x00,
  0xc8, 0x05, 0x00, 0x00, 0x0c, 0x06, 0x00, 0x00, 0x64, 0x02, 0x00, 0x00,
  0x68, 0x01, 0x00, 0x00, 0x98, 0x06, 0x00, 0x00, 0xcc, 0x08, 0x00, 0x00,
  0xe4, 0x00, 0x00, 0x00, 0x18, 0x01, 0x00, 0x00, 0x4e, 0xf7, 0xff, 0xff,
  0x10, 0x00, 0x00, 0x00, 0x1f, 0x00, 0x00, 0x00, 0x18, 0x00, 0x00, 0x00,
  0x38, 0x00, 0x00, 0x00, 0x03, 0x00, 0x00, 0x00, 0x01, 0x00, 0x00, 0x00,
  0x05, 0x00, 0x00, 0x00, 0x0a, 0x00, 0x00, 0x00, 0x1c, 0x00, 0x00, 0x00,
  0x63, 0x6f, 0x6e, 0x76, 0x31, 0x64, 0x5f, 0x32, 0x2f, 0x63, 0x6f, 0x6e,
  0x76, 0x6f, 0x6c, 0x75, 0x74, 0x69, 0x6f, 0x6e, 0x2f, 0x53, 0x71, 0x75,
  0x65, 0x65, 0x7a, 0x65, 0x00, 0x00, 0x00, 0x00, 0x2c, 0xf2, 0xff, 0xff,
  0x9a, 0xf7, 0xff, 0xff, 0x10, 0x00, 0x00, 0x00, 0x1e, 0x00, 0x00, 0x00,
  0x18, 0x00, 0x00, 0x00, 0x2c, 0x00, 0x00, 0x00, 0x03, 0x00, 0x00, 0x00,
  0x01, 0x00, 0x00, 0x00, 0x01, 0x00, 0x00, 0x00, 0x0a, 0x00, 0x00, 0x00,
  0x10, 0x00, 0x00, 0x00, 0x63, 0x6f, 0x6e, 0x76, 0x31, 0x64, 0x5f, 0x32,
  0x2f, 0x52, 0x65, 0x73, 0x68, 0x61, 0x70, 0x65, 0x00, 0x00, 0x00, 0x00,
  0x6c, 0xf2, 0xff, 0xff, 0xda, 0xf7, 0xff, 0xff, 0x10, 0x00, 0x00, 0x00,
  0x1d, 0x00, 0x00, 0x00, 0x1c, 0x00, 0x00, 0x00, 0x3c, 0x00, 0x00, 0x00,
  0x04, 0x00, 0x00, 0x00, 0x01, 0x00, 0x00, 0x00, 0x01, 0x00, 0x00, 0x00,
  0x09, 0x00, 0x00, 0x00, 0x1e, 0x00, 0x00, 0x00, 0x1f, 0x00, 0x00, 0x00,
  0x63, 0x6f, 0x6e, 0x76, 0x31, 0x64, 0x5f, 0x32, 0x2f, 0x63, 0x6f, 0x6e,
  0x76, 0x6f, 0x6c, 0x75, 0x74, 0x69, 0x6f, 0x6e, 0x2f, 0x45, 0x78, 0x70,
  0x61, 0x6e, 0x64, 0x44, 0x69, 0x6d, 0x73, 0x00, 0xbc, 0xf2, 0xff, 0xff,
  0x2a, 0xf8, 0xff, 0xff, 0x10, 0x00, 0x00, 0x00, 0x1c, 0x00, 0x00, 0x00,
  0x14, 0x00, 0x00, 0x00, 0x24, 0x00, 0x00, 0x00, 0x02, 0x00, 0x00, 0x00,
  0x01, 0x00, 0x00, 0x00, 0x03, 0x00, 0x00, 0x00, 0x0e, 0x00, 0x00, 0x00,
  0x79, 0x5f, 0x70, 0x72, 0x65, 0x64, 0x2f, 0x53, 0x6f, 0x66, 0x74, 0x6d,
  0x61, 0x78, 0x00, 0x00, 0xf4, 0xf2, 0xff, 0xff, 0x62, 0xf8, 0xff, 0xff,
  0x10, 0x00, 0x00, 0x00, 0x1b, 0x00, 0x00, 0x00, 0x14, 0x00, 0x00, 0x00,
  0x2c, 0x00, 0x00, 0x00, 0x02, 0x00, 0x00, 0x00, 0x03, 0x00, 0x00, 0x00,
  0x0a, 0x00, 0x00, 0x00, 0x17, 0x00, 0x00, 0x00, 0x79, 0x5f, 0x70, 0x72,
  0x65, 0x64, 0x2f, 0x6b, 0x65, 0x72, 0x6e, 0x65, 0x6c, 0x2f, 0x74, 0x72,
  0x61, 0x6e, 0x73, 0x70, 0x6f, 0x73, 0x65, 0x00, 0x34, 0xf3, 0xff, 0xff,
  0xa2, 0xf8, 0xff, 0xff, 0x10, 0x00, 0x00, 0x00, 0x1a, 0x00, 0x00, 0x00,
  0x14, 0x00, 0x00, 0x00, 0x2c, 0x00, 0x00, 0x00, 0x02, 0x00, 0x00, 0x00,
  0x01, 0x00, 0x00, 0x00, 0x7d, 0x02, 0x00, 0x00, 0x0d, 0x00, 0x00, 0x00,
  0x78, 0x5f, 0x69, 0x6e, 0x70, 0x75, 0x74, 0x5f, 0x69, 0x6e, 0x70, 0x75,
  0x74, 0x00, 0x00, 0x00, 0x08, 0x00, 0x0c, 0x00, 0x04, 0x00, 0x08, 0x00,
  0x08, 0x00, 0x00, 0x00, 0x10, 0x00, 0x00, 0x00, 0x04, 0x00, 0x00, 0x00,
  0x01, 0x00, 0x00, 0x00, 0x00, 0x00, 0x7f, 0x43, 0x01, 0x00, 0x00, 0x00,
  0x00, 0x00, 0x00, 0x00, 0xfa, 0xf8, 0xff, 0xff, 0x10, 0x00, 0x00, 0x00,
  0x19, 0x00, 0x00, 0x00, 0x1c, 0x00, 0x00, 0x00, 0x38, 0x00, 0x00, 0x00,
  0x04, 0x00, 0x00, 0x00, 0x01, 0x00, 0x00, 0x00, 0x2d, 0x00, 0x00, 0x00,
  0x01, 0x00, 0x00, 0x00, 0x1e, 0x00, 0x00, 0x00, 0x1a, 0x00, 0x00, 0x00,
  0x6d, 0x61, 0x78, 0x5f, 0x70, 0x6f, 0x6f, 0x6c, 0x69, 0x6e, 0x67, 0x31,
  0x64, 0x5f, 0x31, 0x2f, 0x45, 0x78, 0x70, 0x61, 0x6e, 0x64, 0x44, 0x69,
  0x6d, 0x73, 0x00, 0x00, 0xd8, 0xf3, 0xff, 0xff, 0x46, 0xf9, 0xff, 0xff,
  0x10, 0x00, 0x00, 0x00, 0x18, 0x00, 0x00, 0x00, 0x1c, 0x00, 0x00, 0x00,
  0x40, 0x00, 0x00, 0x00, 0x04, 0x00, 0x00, 0x00, 0x1e, 0x00, 0x00, 0x00,
  0x01, 0x00, 0x00, 0x00, 0x05, 0x00, 0x00, 0x00, 0x0d, 0x00, 0x00, 0x00,
  0x21, 0x00, 0x00, 0x00, 0x63, 0x6f, 0x6e, 0x76, 0x31, 0x64, 0x5f, 0x31,
  0x2f, 0x63, 0x6f, 0x6e, 0x76, 0x6f, 0x6c, 0x75, 0x74, 0x69, 0x6f, 0x6e,
  0x2f, 0x45, 0x78, 0x70, 0x61, 0x6e, 0x64, 0x44, 0x69, 0x6d, 0x73, 0x5f,
  0x31, 0x00, 0x00, 0x00, 0x2c, 0xf4, 0xff, 0xff, 0xfe, 0xf9, 0xff, 0xff,
  0x00, 0x00, 0x00, 0x02, 0x10, 0x00, 0x00, 0x00, 0x17, 0x00, 0x00, 0x00,
  0x10, 0x00, 0x00, 0x00, 0x30, 0x00, 0x00, 0x00, 0x01, 0x00, 0x00, 0x00,
  0x03, 0x00, 0x00, 0x00, 0x1d, 0x00, 0x00, 0x00, 0x6d, 0x61, 0x78, 0x5f,
  0x70, 0x6f, 0x6f, 0x6c, 0x69, 0x6e, 0x67, 0x31, 0x64, 0x5f, 0x32, 0x2f,
  0x53, 0x71, 0x75, 0x65, 0x65, 0x7a, 0x65, 0x5f, 0x73, 0x68, 0x61, 0x70,
  0x65, 0x00, 0x00, 0x00, 0x74, 0xf4, 0xff, 0xff, 0xe2, 0xf9, 0xff, 0xff,
  0x10, 0x00, 0x00, 0x00, 0x16, 0x00, 0x00, 0x00, 0x1c, 0x00, 0x00, 0x00,
  0x3c, 0x00, 0x00, 0x00, 0x04, 0x00, 0x00, 0x00, 0x01, 0x00, 0x00, 0x00,
  0x01, 0x00, 0x00, 0x00, 0x31, 0x00, 0x00, 0x00, 0x0d, 0x00, 0x00, 0x00,
  0x1f, 0x00, 0x00, 0x00, 0x63, 0x6f, 0x6e, 0x76, 0x31, 0x64, 0x5f, 0x31,
  0x2f, 0x63, 0x6f, 0x6e, 0x76, 0x6f, 0x6c, 0x75, 0x74, 0x69, 0x6f, 0x6e,
  0x2f, 0x45, 0x78, 0x70, 0x61, 0x6e, 0x64, 0x44, 0x69, 0x6d, 0x73, 0x00,
  0xc4, 0xf4, 0xff, 0xff, 0x32, 0xfa, 0xff, 0xff, 0x10, 0x00, 0x00, 0x00,
  0x15, 0x00, 0x00, 0x00, 0x18, 0x00, 0x00, 0x00, 0x38, 0x00, 0x00, 0x00,
  0x03, 0x00, 0x00, 0x00, 0x01, 0x00, 0x00, 0x00, 0x2d, 0x00, 0x00, 0x00,
  0x1e, 0x00, 0x00, 0x00, 0x1c, 0x00, 0x00, 0x00, 0x63, 0x6f, 0x6e, 0x76,
  0x31, 0x64, 0x5f, 0x31, 0x2f, 0x63, 0x6f, 0x6e, 0x76, 0x6f, 0x6c, 0x75,
  0x74, 0x69, 0x6f, 0x6e, 0x2f, 0x53, 0x71, 0x75, 0x65, 0x65, 0x7a, 0x65,
  0x00, 0x00, 0x00, 0x00, 0x10, 0xf5, 0xff, 0xff, 0x7e, 0xfa, 0xff, 0xff,
  0x10, 0x00, 0x00, 0x00, 0x14, 0x00, 0x00, 0x00, 0x1c, 0x00, 0x00, 0x00,
  0x38, 0x00, 0x00, 0x00, 0x04, 0x00, 0x00, 0x00, 0x01, 0x00, 0x00, 0x00,
  0x01, 0x00, 0x00, 0x00, 0x05, 0x00, 0x00, 0x00, 0x0a, 0x00, 0x00, 0x00,
  0x1b, 0x00, 0x00, 0x00, 0x63, 0x6f, 0x6e, 0x76, 0x31, 0x64, 0x5f, 0x32,
  0x2f, 0x63, 0x6f, 0x6e, 0x76, 0x6f, 0x6c, 0x75, 0x74, 0x69, 0x6f, 0x6e,
  0x2f, 0x43, 0x6f, 0x6e, 0x76, 0x32, 0x44, 0x00, 0x5c, 0xf5, 0xff, 0xff,
  0xca, 0xfa, 0xff, 0xff, 0x10, 0x00, 0x00, 0x00, 0x13, 0x00, 0x00, 0x00,
  0x1c, 0x00, 0x00, 0x00, 0x38, 0x00, 0x00, 0x00, 0x04, 0x00, 0x00, 0x00,
  0x01, 0x00, 0x00, 0x00, 0x05, 0x00, 0x00, 0x00, 0x01, 0x00, 0x00, 0x00,
  0x0a, 0x00, 0x00, 0x00, 0x1a, 0x00, 0x00, 0x00, 0x6d, 0x61, 0x78, 0x5f,
  0x70, 0x6f, 0x6f, 0x6c, 0x69, 0x6e, 0x67, 0x31, 0x64, 0x5f, 0x32, 0x2f,
  0x45, 0x78, 0x70, 0x61, 0x6e, 0x64, 0x44, 0x69, 0x6d, 0x73, 0x00, 0x00,
  0xa8, 0xf5, 0xff, 0xff, 0x16, 0xfb, 0xff, 0xff, 0x10, 0x00, 0x00, 0x00,
  0x12, 0x00, 0x00, 0x00, 0x1c, 0x00, 0x00, 0x00, 0x38, 0x00, 0x00, 0x00,
  0x04, 0x00, 0x00, 0x00, 0x01, 0x00, 0x00, 0x00, 0x01, 0x00, 0x00, 0x00,
  0x2d, 0x00, 0x00, 0x00, 0x1e, 0x00, 0x00, 0x00, 0x1b, 0x00, 0x00, 0x00,
  0x63, 0x6f, 0x6e, 0x76, 0x31, 0x64, 0x5f, 0x31, 0x2f, 0x63, 0x6f, 0x6e,
  0x76, 0x6f, 0x6c, 0x75, 0x74, 0x69, 0x6f, 0x6e, 0x2f, 0x43, 0x6f, 0x6e,
  0x76, 0x32, 0x44, 0x00, 0xf4, 0xf5, 0xff, 0xff, 0x62, 0xfb, 0xff, 0xff,
  0x10, 0x00, 0x00, 0x00, 0x11, 0x00, 0x00, 0x00, 0x18, 0x00, 0x00, 0x00,
  0x2c, 0x00, 0x00, 0x00, 0x03, 0x00, 0x00, 0x00, 0x01, 0x00, 0x00, 0x00,
  0x01, 0x00, 0x00, 0x00, 0x1e, 0x00, 0x00, 0x00, 0x10, 0x00, 0x00, 0x00,
  0x63, 0x6f, 0x6e, 0x76, 0x31, 0x64, 0x5f, 0x31, 0x2f, 0x52, 0x65, 0x73,
  0x68, 0x61, 0x70, 0x65, 0x00, 0x00, 0x00, 0x00, 0x34, 0xf6, 0xff, 0xff,
  0x06, 0xfc, 0xff, 0xff, 0x00, 0x00, 0x00, 0x02, 0x10, 0x00, 0x00, 0x00,
  0x10, 0x00, 0x00, 0x00, 0x10, 0x00, 0x00, 0x00, 0x34, 0x00, 0x00, 0x00,
  0x01, 0x00, 0x00, 0x00, 0x03, 0x00, 0x00, 0x00, 0x22, 0x00, 0x00, 0x00,
  0x63, 0x6f, 0x6e, 0x76, 0x31, 0x64, 0x5f, 0x31, 0x2f, 0x63, 0x6f, 0x6e,
  0x76, 0x6f, 0x6c, 0x75, 0x74, 0x69, 0x6f, 0x6e, 0x2f, 0x53, 0x71, 0x75,
  0x65, 0x65, 0x7a, 0x65, 0x5f, 0x73, 0x68, 0x61, 0x70, 0x65, 0x00, 0x00,
  0x80, 0xf6, 0xff, 0xff, 0xee, 0xfb, 0xff, 0xff, 0x10, 0x00, 0x00, 0x00,
  0x0f, 0x00, 0x00, 0x00, 0x18, 0x00, 0x00, 0x00, 0x28, 0x00, 0x00, 0x00,
  0x03, 0x00, 0x00, 0x00, 0x01, 0x00, 0x00, 0x00, 0x2d, 0x00, 0x00, 0x00,
